<unk>	0
<s>	0
</s>	0
<pad>	0
<0x00>	0
<0x01>	0
<0x02>	0
<0x03>	0
<0x04>	0
<0x05>	0
<0x06>	0
<0x07>	0
<0x08>	0
<0x09>	0
<0x0A>	0
<0x0B>	0
<0x0C>	0
<0x0D>	0
<0x0E>	0
<0x0F>	0
<0x10>	0
<0x11>	0
<0x12>	0
<0x13>	0
<0x14>	0
<0x15>	0
<0x16>	0
<0x17>	0
<0x18>	0
<0x19>	0
<0x1A>	0
<0x1B>	0
<0x1C>	0
<0x1D>	0
<0x1E>	0
<0x1F>	0
<0x20>	0
<0x21>	0
<0x22>	0
<0x23>	0
<0x24>	0
<0x25>	0
<0x26>	0
<0x27>	0
<0x28>	0
<0x29>	0
<0x2A>	0
<0x2B>	0
<0x2C>	0
<0x2D>	0
<0x2E>	0
<0x2F>	0
<0x30>	0
<0x31>	0
<0x32>	0
<0x33>	0
<0x34>	0
<0x35>	0
<0x36>	0
<0x37>	0
<0x38>	0
<0x39>	0
<0x3A>	0
<0x3B>	0
<0x3C>	0
<0x3D>	0
<0x3E>	0
<0x3F>	0
<0x40>	0
<0x41>	0
<0x42>	0
<0x43>	0
<0x44>	0
<0x45>	0
<0x46>	0
<0x47>	0
<0x48>	0
<0x49>	0
<0x4A>	0
<0x4B>	0
<0x4C>	0
<0x4D>	0
<0x4E>	0
<0x4F>	0
<0x50>	0
<0x51>	0
<0x52>	0
<0x53>	0
<0x54>	0
<0x55>	0
<0x56>	0
<0x57>	0
<0x58>	0
<0x59>	0
<0x5A>	0
<0x5B>	0
<0x5C>	0
<0x5D>	0
<0x5E>	0
<0x5F>	0
<0x60>	0
<0x61>	0
<0x62>	0
<0x63>	0
<0x64>	0
<0x65>	0
<0x66>	0
<0x67>	0
<0x68>	0
<0x69>	0
<0x6A>	0
<0x6B>	0
<0x6C>	0
<0x6D>	0
<0x6E>	0
<0x6F>	0
<0x70>	0
<0x71>	0
<0x72>	0
<0x73>	0
<0x74>	0
<0x75>	0
<0x76>	0
<0x77>	0
<0x78>	0
<0x79>	0
<0x7A>	0
<0x7B>	0
<0x7C>	0
<0x7D>	0
<0x7E>	0
<0x7F>	0
<0x80>	0
<0x81>	0
<0x82>	0
<0x83>	0
<0x84>	0
<0x85>	0
<0x86>	0
<0x87>	0
<0x88>	0
<0x89>	0
<0x8A>	0
<0x8B>	0
<0x8C>	0
<0x8D>	0
<0x8E>	0
<0x8F>	0
<0x90>	0
<0x91>	0
<0x92>	0
<0x93>	0
<0x94>	0
<0x95>	0
<0x96>	0
<0x97>	0
<0x98>	0
<0x99>	0
<0x9A>	0
<0x9B>	0
<0x9C>	0
<0x9D>	0
<0x9E>	0
<0x9F>	0
<0xA0>	0
<0xA1>	0
<0xA2>	0
<0xA3>	0
<0xA4>	0
<0xA5>	0
<0xA6>	0
<0xA7>	0
<0xA8>	0
<0xA9>	0
<0xAA>	0
<0xAB>	0
<0xAC>	0
<0xAD>	0
<0xAE>	0
<0xAF>	0
<0xB0>	0
<0xB1>	0
<0xB2>	0
<0xB3>	0
<0xB4>	0
<0xB5>	0
<0xB6>	0
<0xB7>	0
<0xB8>	0
<0xB9>	0
<0xBA>	0
<0xBB>	0
<0xBC>	0
<0xBD>	0
<0xBE>	0
<0xBF>	0
<0xC0>	0
<0xC1>	0
<0xC2>	0
<0xC3>	0
<0xC4>	0
<0xC5>	0
<0xC6>	0
<0xC7>	0
<0xC8>	0
<0xC9>	0
<0xCA>	0
<0xCB>	0
<0xCC>	0
<0xCD>	0
<0xCE>	0
<0xCF>	0
<0xD0>	0
<0xD1>	0
<0xD2>	0
<0xD3>	0
<0xD4>	0
<0xD5>	0
<0xD6>	0
<0xD7>	0
<0xD8>	0
<0xD9>	0
<0xDA>	0
<0xDB>	0
<0xDC>	0
<0xDD>	0
<0xDE>	0
<0xDF>	0
<0xE0>	0
<0xE1>	0
<0xE2>	0
<0xE3>	0
<0xE4>	0
<0xE5>	0
<0xE6>	0
<0xE7>	0
<0xE8>	0
<0xE9>	0
<0xEA>	0
<0xEB>	0
<0xEC>	0
<0xED>	0
<0xEE>	0
<0xEF>	0
<0xF0>	0
<0xF1>	0
<0xF2>	0
<0xF3>	0
<0xF4>	0
<0xF5>	0
<0xF6>	0
<0xF7>	0
<0xF8>	0
<0xF9>	0
<0xFA>	0
<0xFB>	0
<0xFC>	0
<0xFD>	0
<0xFE>	0
<0xFF>	0
▁t	-0
▁a	-1
in	-2
he	-3
re	-4
on	-5
er	-6
▁the	-7
▁s	-8
▁w	-9
nd	-10
at	-11
▁o	-12
▁c	-13
it	-14
is	-15
or	-16
en	-17
es	-18
▁f	-19
ing	-20
▁b	-21
ou	-22
▁p	-23
ed	-24
an	-25
ar	-26
al	-27
▁to	-28
▁m	-29
▁and	-30
▁in	-31
▁of	-32
▁d	-33
ic	-34
as	-35
▁h	-36
le	-37
▁th	-38
om	-39
ion	-40
il	-41
▁T	-42
st	-43
ent	-44
▁l	-45
ve	-46
▁re	-47
▁S	-48
ro	-49
▁n	-50
▁I	-51
▁e	-52
▁g	-53
▁A	-54
et	-55
ac	-56
ly	-57
id	-58
▁y	-59
▁C	-60
ay	-61
ut	-62
▁be	-63
▁on	-64
ad	-65
ot	-66
▁is	-67
▁for	-68
ow	-69
▁u	-70
am	-71
ol	-72
ur	-73
ig	-74
im	-75
ct	-76
▁you	-77
▁M	-78
el	-79
ver	-80
▁that	-81
▁st	-82
ith	-83
se	-84
▁B	-85
ation	-86
ir	-87
▁P	-88
▁The	-89
▁with	-90
▁he	-91
▁W	-92
▁it	-93
ce	-94
ter	-95
ch	-96
▁R	-97
ill	-98
▁wh	-99
▁an	-100
▁H	-101
▁al	-102
▁D	-103
▁as	-104
ul	-105
and	-106
ers	-107
▁F	-108
▁we	-109
ke	-110
ag	-111
▁pro	-112
▁this	-113
if	-114
▁are	-115
▁at	-116
ate	-117
▁con	-118
pp	-119
oo	-120
um	-121
ri	-122
▁com	-123
her	-124
est	-125
ld	-126
▁ha	-127
em	-128
▁L	-129
ore	-130
▁N	-131
▁was	-132
▁r	-133
us	-134
ew	-135
th	-136
ess	-137
igh	-138
rom	-139
▁se	-140
▁G	-141
ist	-142
ab	-143
▁or	-144
ain	-145
un	-146
op	-147
▁E	-148
▁(	-149
▁de	-150
▁ex	-151
res	-152
▁O	-153
▁v	-154
ity	-155
ort	-156
ant	-157
ment	-158
ive	-159
▁from	-160
art	-161
▁have	-162
pe	-163
qu	-164
▁te	-165
▁by	-166
oc	-167
nt	-168
ust	-169
▁sh	-170
os	-171
ies	-172
ight	-173
▁su	-174
▁ch	-175
ear	-176
▁-	-177
▁J	-178
all	-179
▁not	-180
our	-181
▁le	-182
out	-183
ard	-184
ome	-185
red	-186
▁will	-187
ast	-188
ud	-189
▁your	-190
ra	-191
▁pl	-192
ost	-193
▁can	-194
▁has	-195
▁ab	-196
ack	-197
ould	-198
▁wor	-199
iv	-200
ial	-201
▁“	-202
▁U	-203
gh	-204
ge	-205
ak	-206
rou	-207
▁j	-208
ide	-209
ell	-210
xt	-211
od	-212
te	-213
▁Re	-214
▁all	-215
▁Th	-216
ice	-217
iz	-218
ine	-219
▁k	-220
▁sa	-221
per	-222
pt	-223
nder	-224
ure	-225
▁In	-226
▁tr	-227
ally	-228
▁do	-229
▁whe	-230
▁ne	-231
fe	-232
▁out	-233
▁but	-234
▁"	-235
ich	-236
▁up	-237
▁ad	-238
act	-239
▁comp	-240
▁us	-241
..	-242
are	-243
▁his	-244
ions	-245
age	-246
▁me	-247
one	-248
▁their	-249
ong	-250
ook	-251
ip	-252
ake	-253
▁K	-254
cc	-255
ther	-256
ans	-257
ame	-258
og	-259
ime	-260
ind	-261
▁they	-262
▁more	-263
▁under	-264
ated	-265
▁who	-266
ous	-267
▁cl	-268
ber	-269
▁en	-270
ie	-271
ite	-272
▁about	-273
▁one	-274
▁text	-275
▁St	-276
very	-277
ia	-278
able	-279
▁so	-280
▁Y	-281
ail	-282
ike	-283
pl	-284
ood	-285
▁year	-286
▁go	-287
ub	-288
▁my	-289
▁im	-290
ign	-291
▁off	-292
ry	-293
ap	-294
ace	-295
so	-296
▁new	-297
▁our	-298
ue	-299
▁inc	-300
▁man	-301
▁cont	-302
▁said	-303
orm	-304
ks	-305
▁It	-306
▁V	-307
ff	-308
▁which	-309
ary	-310
ire	-311
▁int	-312
du	-313
▁Ch	-314
▁been	-315
ays	-316
ass	-317
ase	-318
port	-319
ance	-320
ord	-321
▁app	-322
▁res	-323
ile	-324
ree	-325
ach	-326
▁un	-327
▁per	-328
ven	-329
ib	-330
ction	-331
ll	-332
ick	-333
ations	-334
ount	-335
▁qu	-336
own	-337
reat	-338
stand	-339
▁ag	-340
day	-341
ne	-342
ult	-343
au	-344
▁like	-345
▁over	-346
▁had	-347
▁time	-348
ents	-349
▁were	-350
▁also	-351
▁dis	-352
▁some	-353
ence	-354
mer	-355
▁understand	-356
vel	-357
▁sp	-358
ical	-359
▁pe	-360
▁other	-361
▁ar	-362
ark	-363
ress	-364
▁rec	-365
▁part	-366
av	-367
▁He	-368
▁work	-369
ru	-370
▁sc	-371
▁We	-372
▁get	-373
irst	-374
fter	-375
▁its	-376
ings	-377
erv	-378
ove	-379
▁Read	-380
▁when	-381
▁would	-382
▁kn	-383
ose	-384
form	-385
▁her	-386
ors	-387
▁any	-388
ep	-389
ough	-390
ition	-391
ond	-392
▁them	-393
▁This	-394
int	-395
▁than	-396
ob	-397
▁what	-398
ound	-399
▁tw	-400
ens	-401
▁ro	-402
low	-403
▁just	-404
ople	-405
▁there	-406
ild	-407
▁acc	-408
▁pre	-409
wn	-410
ish	-411
▁spe	-412
▁into	-413
ory	-414
▁first	-415
ade	-416
ov	-417
ang	-418
old	-419
vers	-420
ren	-421
▁bec	-422
lic	-423
▁pr	-424
ning	-425
▁fe	-426
oy	-427
▁people	-428
ian	-429
ck	-430
▁if	-431
▁Wh	-432
▁how	-433
ink	-434
ize	-435
hed	-436
▁am	-437
amp	-438
ater	-439
itt	-440
▁des	-441
lud	-442
▁after	-443
rough	-444
ft	-445
ons	-446
ates	-447
▁no	-448
▁–	-449
ious	-450
▁two	-451
▁need	-452
▁comm	-453
ict	-454
anc	-455
▁bl	-456
▁most	-457
▁she	-458
ual	-459
▁play	-460
▁co	-461
round	-462
ident	-463
aw	-464
tern	-465
▁back	-466
▁includ	-467
▁add	-468
▁look	-469
rent	-470
▁As	-471
▁only	-472
les	-473
▁make	-474
lp	-475
we	-476
end	-477
▁years	-478
ause	-479
▁act	-480
iew	-481
▁bet	-482
hing	-483
▁know	-484
▁col	-485
ful	-486
ating	-487
▁em	-488
iss	-489
ect	-490
▁Un	-491
▁bu	-492
▁every	-493
▁help	-494
gr	-495
▁br	-496
▁want	-497
▁ind	-498
▁through	-499
...	-500
▁prov	-501
ock	-502
▁You	-503
▁ph	-504
▁pol	-505
ph	-506
▁dec	-507
▁Se	-508
lect	-509
▁produ	-510
▁cons	-511
▁see	-512
ool	-513
ise	-514
ont	-515
▁$	-516
▁may	-517
enc	-518
row	-519
▁could	-520
ities	-521
ational	-522
▁now	-523
urn	-524
▁inv	-525
▁wee	-526
ased	-527
fore	-528
rit	-529
▁well	-530
▁supp	-531
ife	-532
ject	-533
hen	-534
▁An	-535
aking	-536
▁serv	-537
pect	-538
▁many	-539
▁use	-540
▁sec	-541
▁And	-542
oint	-543
fect	-544
als	-545
any	-546
▁New	-547
uring	-548
ily	-549
umm	-550
ting	-551
▁But	-552
ices	-553
▁att	-554
▁fl	-555
▁stud	-556
▁ev	-557
▁these	-558
▁start	-559
▁even	-560
ts	-561
▁last	-562
▁reg	-563
com	-564
ific	-565
.”	-566
ments	-567
▁Com	-568
▁imp	-569
uch	-570
up	-571
▁show	-572
▁De	-573
oth	-574
ited	-575
▁dif	-576
▁way	-577
oss	-578
▁where	-579
▁rem	-580
▁sy	-581
▁If	-582
▁him	-583
▁sm	-584
und	-585
▁rel	-586
elf	-587
ures	-588
▁fin	-589
ics	-590
get	-591
ty	-592
ange	-593
▁mon	-594
ath	-595
▁very	-596
▁ke	-597
ied	-598
erson	-599
iness	-600
ork	-601
▁did	-602
ok	-603
▁own	-604
▁down	-605
▁again	-606
bs	-607
ason	-608
olog	-609
,”	-610
ward	-611
cial	-612
ublic	-613
▁call	-614
▁good	-615
▁right	-616
rib	-617
▁exper	-618
▁Al	-619
ues	-620
oun	-621
▁gu	-622
ible	-623
▁ass	-624
erm	-625
▁Pro	-626
ular	-627
▁pres	-628
ull	-629
▁because	-630
ert	-631
▁bus	-632
▁then	-633
arch	-634
▁high	-635
).	-636
gan	-637
▁don	-638
▁ac	-639
velop	-640
▁Tr	-641
▁Sh	-642
▁ent	-643
▁made	-644
▁should	-645
▁set	-646
▁world	-647
ility	-648
its	-649
▁long	-650
cess	-651
air	-652
▁day	-653
ince	-654
ix	-655
▁being	-656
ative	-657
hes	-658
▁For	-659
▁car	-660
other	-661
▁before	-662
▁Summ	-663
hip	-664
ience	-665
io	-666
▁much	-667
▁gr	-668
ollow	-669
alth	-670
▁team	-671
ble	-672
▁Cl	-673
▁sur	-674
ener	-675
▁|	-676
▁great	-677
ced	-678
▁min	-679
stem	-680
▁here	-681
arize	-682
ters	-683
▁take	-684
ner	-685
ys	-686
▁—	-687
▁end	-688
omet	-689
▁Summarize	-690
▁loc	-691
chool	-692
ank	-693
▁fam	-694
),	-695
▁Ar	-696
land	-697
rest	-698
▁ins	-699
▁read	-700
▁find	-701
meric	-702
▁count	-703
ower	-704
ax	-705
▁home	-706
▁inst	-707
alk	-708
▁&	-709
line	-710
▁those	-711
▁report	-712
▁ear	-713
atch	-714
▁while	-715
▁such	-716
pr	-717
▁lead	-718
▁disc	-719
▁think	-720
ouse	-721
▁op	-722
az	-723
ng	-724
▁Be	-725
▁Le	-726
formation	-727
▁best	-728
man	-729
way	-730
▁med	-731
▁mem	-732
."	-733
riv	-734
ier	-735
ros	-736
▁state	-737
ually	-738
▁diffe	-739
▁does	-740
ces	-741
▁Americ	-742
▁art	-743
▁say	-744
▁around	-745
roup	-746
▁char	-747
,"	-748
led	-749
▁Ad	-750
▁develop	-751
▁che	-752
▁ser	-753
▁three	-754
▁cre	-755
irect	-756
ient	-757
read	-758
ale	-759
▁follow	-760
The	-761
▁num	-762
▁inte	-763
▁hand	-764
gram	-765
▁str	-766
ump	-767
▁av	-768
▁business	-769
▁used	-770
ivers	-771
ets	-772
ug	-773
view	-774
▁person	-775
ave	-776
imes	-777
▁inter	-778
vern	-779
▁design	-780
ather	-781
ars	-782
▁month	-783
▁ret	-784
▁cur	-785
▁sim	-786
ash	-787
▁On	-788
lease	-789
▁mark	-790
oot	-791
ames	-792
chn	-793
ins	-794
ives	-795
▁life	-796
ton	-797
ah	-798
ric	-799
▁trans	-800
▁mod	-801
▁Fr	-802
ines	-803
ists	-804
▁game	-805
▁post	-806
▁det	-807
▁system	-808
▁sign	-809
ages	-810
▁There	-811
ween	-812
▁requ	-813
▁cour	-814
▁run	-815
▁How	-816
illion	-817
▁going	-818
der	-819
ement	-820
▁week	-821
riend	-822
▁though	-823
▁found	-824
uss	-825
▁support	-826
akes	-827
iel	-828
▁vis	-829
arm	-830
▁still	-831
▁They	-832
ple	-833
▁between	-834
▁fr	-835
▁few	-836
▁information	-837
▁ed	-838
ution	-839
orn	-840
▁So	-841
▁product	-842
▁Te	-843
▁real	-844
▁point	-845
▁somet	-846
▁really	-847
unity	-848
ffect	-849
▁child	-850
ption	-851
ene	-852
▁sub	-853
▁cr	-854
▁aut	-855
iet	-856
ital	-857
▁each	-858
▁during	-859
▁top	-860
▁adv	-861
▁care	-862
▁comple	-863
▁both	-864
▁rep	-865
▁plan	-866
ness	-867
▁exp	-868
oh	-869
uc	-870
ata	-871
ustom	-872
▁Bl	-873
▁form	-874
▁fil	-875
▁Sc	-876
cent	-877
▁sk	-878
▁same	-879
▁lar	-880
ittle	-881
ever	-882
ute	-883
▁Is	-884
▁since	-885
▁book	-886
▁At	-887
▁happ	-888
ox	-889
▁cle	-890
▁different	-891
▁program	-892
ross	-893
▁gl	-894
▁open	-895
▁tra	-896
▁bel	-897
bers	-898
els	-899
▁provid	-900
ying	-901
▁eas	-902
▁What	-903
▁cent	-904
▁big	-905
ving	-906
▁group	-907
ling	-908
▁lot	-909
ants	-910
ik	-911
ern	-912
▁ann	-913
ired	-914
ording	-915
▁offic	-916
▁place	-917
ott	-918
▁free	-919
▁company	-920
ized	-921
▁list	-922
ved	-923
con	-924
▁met	-925
gg	-926
▁Pl	-927
▁against	-928
▁including	-929
▁ext	-930
▁All	-931
▁wom	-932
atur	-933
▁iss	-934
att	-935
||	-936
▁She	-937
▁del	-938
▁def	-939
▁prof	-940
ger	-941
▁school	-942
▁conf	-943
aj	-944
▁head	-945
oad	-946
▁Ph	-947
▁Q	-948
▁health	-949
▁govern	-950
arn	-951
ared	-952
ology	-953
▁techn	-954
ways	-955
▁law	-956
ailable	-957
▁next	-958
ody	-959
ished	-960
▁come	-961
▁public	-962
▁too	-963
▁fun	-964
▁Ind	-965
▁ref	-966
▁pass	-967
▁contin	-968
ional	-969
ering	-970
▁things	-971
▁little	-972
be	-973
istr	-974
▁gener	-975
▁rece	-976
▁import	-977
▁pur	-978
▁allow	-979
gy	-980
▁When	-981
▁love	-982
▁put	-983
ield	-984
▁build	-985
▁feat	-986
ense	-987
▁quest	-988
less	-989
▁Col	-990
▁using	-991
▁i	-992
ision	-993
thing	-994
▁process	-995
ism	-996
▁second	-997
reen	-998
▁custom	-999
▁mov	-1000
▁To	-1001
▁US	-1002
▁fact	-1003
▁friend	-1004
iving	-1005
▁Ex	-1006
▁direct	-1007
▁expl	-1008
▁sol	-1009
ality	-1010
self	-1011
▁family	-1012
ically	-1013
▁project	-1014
▁keep	-1015
▁invest	-1016
▁appro	-1017
▁resp	-1018
▁recent	-1019
▁poss	-1020
▁That	-1021
▁exc	-1022
▁says	-1023
▁four	-1024
ves	-1025
ract	-1026
▁win	-1027
aining	-1028
▁opp	-1029
▁‘	-1030
iqu	-1031
▁rest	-1032
▁'	-1033
▁feel	-1034
▁something	-1035
▁small	-1036
▁main	-1037
▁ca	-1038
▁available	-1039
▁ask	-1040
▁sl	-1041
▁stand	-1042
▁number	-1043
co	-1044
iversity	-1045
▁bro	-1046
▁Z	-1047
▁market	-1048
▁days	-1049
▁another	-1050
▁interest	-1051
▁tri	-1052
▁soc	-1053
▁dr	-1054
rem	-1055
oard	-1056
▁organ	-1057
▁today	-1058
br	-1059
▁season	-1060
▁result	-1061
▁ide	-1062
▁With	-1063
▁hard	-1064
▁cor	-1065
▁Or	-1066
ex	-1067
▁partic	-1068
▁ty	-1069
▁var	-1070
▁vide	-1071
▁ve	-1072
ately	-1073
ret	-1074
blem	-1075
▁let	-1076
ote	-1077
▁wr	-1078
ploy	-1079
ention	-1080
▁Chr	-1081
▁ob	-1082
▁got	-1083
▁class	-1084
▁better	-1085
ral	-1086
▁Con	-1087
cept	-1088
▁current	-1089
▁pay	-1090
▁without	-1091
▁old	-1092
ware	-1093
ats	-1094
▁data	-1095
▁Sp	-1096
▁incre	-1097
▁Br	-1098
▁water	-1099
▁full	-1100
uck	-1101
ged	-1102
ined	-1103
ains	-1104
▁mus	-1105
med	-1106
oney	-1107
▁never	-1108
▁power	-1109
▁pat	-1110
▁told	-1111
▁bre	-1112
ann	-1113
▁always	-1114
ered	-1115
inal	-1116
pped	-1117
outh	-1118
▁pop	-1119
rence	-1120
▁might	-1121
▁belie	-1122
▁news	-1123
▁problem	-1124
▁leg	-1125
ency	-1126
▁[	-1127
ior	-1128
orth	-1129
ER	-1130
▁camp	-1131
ina	-1132
▁grow	-1133
▁night	-1134
iver	-1135
ird	-1136
▁past	-1137
ten	-1138
▁rese	-1139
▁Mar	-1140
ccess	-1141
▁inf	-1142
ential	-1143
▁experience	-1144
▁government	-1145
▁perform	-1146
the	-1147
▁million	-1148
▁near	-1149
ruct	-1150
▁manag	-1151
ised	-1152
ney	-1153
▁service	-1154
rol	-1155
son	-1156
lection	-1157
ours	-1158
▁seem	-1159
osed	-1160
▁val	-1161
▁phot	-1162
▁meet	-1163
▁prom	-1164
▁Comm	-1165
▁Mon	-1166
▁conc	-1167
▁No	-1168
urs	-1169
▁important	-1170
ission	-1171
▁turn	-1172
▁must	-1173
pping	-1174
▁cost	-1175
▁unt	-1176
▁test	-1177
▁May	-1178
ium	-1179
ured	-1180
▁prev	-1181
ley	-1182
ained	-1183
▁spec	-1184
pend	-1185
▁country	-1186
gin	-1187
raph	-1188
ator	-1189
▁effect	-1190
▁sure	-1191
▁One	-1192
▁online	-1193
▁fac	-1194
▁able	-1195
▁Cent	-1196
ands	-1197
▁level	-1198
▁el	-1199
▁mar	-1200
▁oper	-1201
▁dem	-1202
▁less	-1203
▁beh	-1204
ope	-1205
▁Can	-1206
▁job	-1207
▁working	-1208
let	-1209
ffic	-1210
▁called	-1211
▁special	-1212
▁making	-1213
▁give	-1214
aut	-1215
tend	-1216
ajor	-1217
▁hist	-1218
ode	-1219
oor	-1220
ember	-1221
▁intern	-1222
▁order	-1223
ohn	-1224
▁hum	-1225
hor	-1226
▁expect	-1227
▁event	-1228
▁My	-1229
▁air	-1230
err	-1231
ream	-1232
▁light	-1233
ases	-1234
▁pos	-1235
ury	-1236
icle	-1237
aim	-1238
▁access	-1239
iting	-1240
ertain	-1241
▁left	-1242
▁Res	-1243
▁sit	-1244
iday	-1245
▁Am	-1246
ama	-1247
here	-1248
conom	-1249
enn	-1250
to	-1251
▁Pres	-1252
▁est	-1253
▁mil	-1254
ps	-1255
aring	-1256
▁sing	-1257
▁away	-1258
▁dri	-1259
▁area	-1260
ably	-1261
▁view	-1262
▁provide	-1263
veral	-1264
▁eng	-1265
ards	-1266
ories	-1267
▁local	-1268
We	-1269
▁cap	-1270
eng	-1271
▁chang	-1272
work	-1273
▁name	-1274
▁city	-1275
▁--	-1276
▁la	-1277
ery	-1278
ified	-1279
▁until	-1280
▁change	-1281
ready	-1282
▁food	-1283
▁=	-1284
▁story	-1285
▁children	-1286
▁why	-1287
▁American	-1288
ising	-1289
▁dep	-1290
min	-1291
▁mat	-1292
▁Man	-1293
▁video	-1294
▁looking	-1295
▁University	-1296
▁John	-1297
▁official	-1298
▁move	-1299
arent	-1300
▁App	-1301
iron	-1302
ample	-1303
▁large	-1304
▁percent	-1305
▁Car	-1306
▁following	-1307
ec	-1308
ries	-1309
une	-1310
▁Trump	-1311
ivid	-1312
▁bas	-1313
augh	-1314
▁Pr	-1315
▁webs	-1316
year	-1317
▁sal	-1318
uro	-1319
▁case	-1320
▁dev	-1321
▁Fl	-1322
▁Co	-1323
▁students	-1324
▁prote	-1325
ron	-1326
▁services	-1327
ients	-1328
▁within	-1329
iven	-1330
▁record	-1331
▁United	-1332
ted	-1333
used	-1334
side	-1335
▁money	-1336
▁After	-1337
▁dist	-1338
ane	-1339
▁along	-1340
IN	-1341
▁Su	-1342
▁Gr	-1343
▁word	-1344
ived	-1345
ubl	-1346
ister	-1347
▁creat	-1348
artment	-1349
▁already	-1350
mber	-1351
▁Christ	-1352
▁elect	-1353
▁Ste	-1354
cl	-1355
ails	-1356
alf	-1357
▁indust	-1358
▁rele	-1359
▁major	-1360
▁sw	-1361
▁Rep	-1362
▁talk	-1363
▁announ	-1364
▁success	-1365
ider	-1366
▁community	-1367
▁Our	-1368
▁.	-1369
▁members	-1370
▁women	-1371
joy	-1372
▁didn	-1373
▁profess	-1374
ature	-1375
▁short	-1376
▁times	-1377
▁several	-1378
irl	-1379
▁proper	-1380
▁equ	-1381
by	-1382
▁site	-1383
▁Fe	-1384
▁ever	-1385
▁came	-1386
▁thing	-1387
▁far	-1388
utes	-1389
ids	-1390
oci	-1391
▁across	-1392
por	-1393
▁Sy	-1394
▁activ	-1395
▁Tw	-1396
iety	-1397
atic	-1398
▁course	-1399
▁impro	-1400
▁five	-1401
ony	-1402
▁men	-1403
▁become	-1404
▁const	-1405
itional	-1406
▁room	-1407
▁often	-1408
ills	-1409
▁Eng	-1410
crib	-1411
▁took	-1412
▁toget	-1413
▁together	-1414
aster	-1415
▁pa	-1416
▁tell	-1417
ush	-1418
▁film	-1419
▁pract	-1420
ched	-1421
ead	-1422
iam	-1423
ots	-1424
ON	-1425
urity	-1426
▁line	-1427
app	-1428
▁employ	-1429
▁writ	-1430
▁months	-1431
ball	-1432
ization	-1433
aff	-1434
raft	-1435
▁polit	-1436
▁police	-1437
▁deal	-1438
▁having	-1439
▁present	-1440
sh	-1441
ored	-1442
▁bit	-1443
▁ago	-1444
ones	-1445
▁complete	-1446
▁kind	-1447
acy	-1448
book	-1449
▁young	-1450
eral	-1451
▁according	-1452
uly	-1453
▁Pol	-1454
itions	-1455
▁include	-1456
▁Im	-1457
▁Wor	-1458
▁es	-1459
▁State	-1460
▁pot	-1461
▁least	-1462
▁foc	-1463
▁term	-1464
▁enough	-1465
▁learn	-1466
▁house	-1467
idd	-1468
▁account	-1469
▁Min	-1470
▁En	-1471
▁cond	-1472
▁comes	-1473
▁started	-1474
▁live	-1475
▁President	-1476
osp	-1477
▁social	-1478
▁econom	-1479
▁fund	-1480
▁fav	-1481
reet	-1482
▁Ne	-1483
ians	-1484
▁return	-1485
▁series	-1486
▁trad	-1487
▁won	-1488
▁based	-1489
▁games	-1490
▁known	-1491
▁early	-1492
ability	-1493
viron	-1494
inc	-1495
▁offer	-1496
▁ce	-1497
nes	-1498
--	-1499
▁These	-1500
▁fore	-1501
▁vers	-1502
ober	-1503
itive	-1504
▁X	-1505
unch	-1506
ique	-1507
tt	-1508
▁/	-1509
uture	-1510
pecial	-1511
▁music	-1512
▁later	-1513
most	-1514
▁getting	-1515
▁Mc	-1516
▁Me	-1517
AT	-1518
ination	-1519
▁York	-1520
illed	-1521
▁orig	-1522
▁side	-1523
▁media	-1524
▁research	-1525
▁products	-1526
▁enjoy	-1527
▁City	-1528
▁website	-1529
▁net	-1530
▁went	-1531
▁applic	-1532
▁Here	-1533
nect	-1534
ster	-1535
ows	-1536
▁opt	-1537
gest	-1538
▁Med	-1539
▁By	-1540
▁Mr	-1541
▁cou	-1542
▁check	-1543
▁happen	-1544
load	-1545
irm	-1546
▁tax	-1547
▁appear	-1548
over	-1549
▁makes	-1550
ape	-1551
▁However	-1552
yle	-1553
▁claim	-1554
▁cut	-1555
enef	-1556
▁Euro	-1557
oon	-1558
▁below	-1559
aken	-1560
duct	-1561
▁easy	-1562
▁possible	-1563
▁pain	-1564
▁occ	-1565
▁invol	-1566
▁done	-1567
ference	-1568
▁create	-1569
ued	-1570
▁hold	-1571
arr	-1572
rop	-1573
ides	-1574
omm	-1575
▁Intern	-1576
▁Cal	-1577
▁quick	-1578
▁Des	-1579
▁Do	-1580
▁thought	-1581
▁yet	-1582
▁mean	-1583
use	-1584
▁sent	-1585
RE	-1586
ividual	-1587
fort	-1588
▁president	-1589
rew	-1590
▁Not	-1591
uff	-1592
▁Ass	-1593
ourn	-1594
▁Don	-1595
▁doesn	-1596
▁deb	-1597
▁mult	-1598
leg	-1599
of	-1600
▁clear	-1601
ee	-1602
▁Inst	-1603
▁par	-1604
▁Count	-1605
▁body	-1606
▁hours	-1607
AN	-1608
▁charac	-1609
▁Dr	-1610
ai	-1611
▁Cont	-1612
raw	-1613
▁needs	-1614
oice	-1615
▁treat	-1616
▁seen	-1617
▁Bro	-1618
aign	-1619
▁control	-1620
hers	-1621
▁Ob	-1622
ights	-1623
▁review	-1624
▁non	-1625
▁jo	-1626
vironment	-1627
ances	-1628
▁actually	-1629
aces	-1630
▁means	-1631
▁quality	-1632
.,	-1633
▁Che	-1634
▁Gu	-1635
▁Ab	-1636
▁mom	-1637
▁bring	-1638
▁doing	-1639
▁others	-1640
acks	-1641
ided	-1642
▁visit	-1643
▁opport	-1644
▁personal	-1645
▁Jan	-1646
▁once	-1647
▁future	-1648
▁former	-1649
▁Now	-1650
ource	-1651
▁compet	-1652
sel	-1653
icy	-1654
▁friends	-1655
▁priv	-1656
▁While	-1657
▁press	-1658
▁development	-1659
▁mor	-1660
▁National	-1661
aterial	-1662
verage	-1663
▁Ed	-1664
ison	-1665
room	-1666
rap	-1667
▁discuss	-1668
▁share	-1669
▁close	-1670
for	-1671
gle	-1672
▁soft	-1673
▁Friday	-1674
ienc	-1675
▁low	-1676
▁individual	-1677
▁lim	-1678
▁benef	-1679
It	-1680
ither	-1681
▁ident	-1682
▁...	-1683
ww	-1684
iously	-1685
wards	-1686
oll	-1687
▁certain	-1688
▁email	-1689
▁North	-1690
▁Acc	-1691
▁educ	-1692
▁works	-1693
▁key	-1694
lish	-1695
aps	-1696
lement	-1697
▁tre	-1698
▁comb	-1699
lege	-1700
▁strong	-1701
▁Europe	-1702
ift	-1703
▁chall	-1704
▁beaut	-1705
▁#	-1706
▁lat	-1707
▁given	-1708
▁history	-1709
aly	-1710
▁question	-1711
▁author	-1712
▁space	-1713
ument	-1714
▁compan	-1715
▁hot	-1716
ST	-1717
▁Just	-1718
▁among	-1719
▁commun	-1720
imate	-1721
▁begin	-1722
▁store	-1723
▁industry	-1724
▁perfect	-1725
▁mind	-1726
▁prop	-1727
ograph	-1728
▁wa	-1729
▁Dep	-1730
▁campaign	-1731
▁hig	-1732
ches	-1733
ensive	-1734
▁World	-1735
▁six	-1736
ources	-1737
ify	-1738
▁sex	-1739
▁Comp	-1740
▁step	-1741
▁try	-1742
go	-1743
▁Aust	-1744
▁South	-1745
▁page	-1746
fer	-1747
sw	-1748
de	-1749
ocr	-1750
▁States	-1751
▁human	-1752
ators	-1753
pro	-1754
Th	-1755
ips	-1756
▁ener	-1757
▁House	-1758
ummer	-1759
▁ra	-1760
AR	-1761
vert	-1762
▁Sec	-1763
▁ant	-1764
▁half	-1765
ague	-1766
▁pie	-1767
▁typ	-1768
▁miss	-1769
▁item	-1770
ief	-1771
▁Em	-1772
▁publ	-1773
▁Wed	-1774
▁minutes	-1775
▁taking	-1776
▁super	-1777
▁single	-1778
▁contact	-1779
▁face	-1780
▁tem	-1781
▁break	-1782
▁crit	-1783
▁foot	-1784
▁front	-1785
▁pack	-1786
urther	-1787
▁technology	-1788
ateg	-1789
ners	-1790
▁tot	-1791
itor	-1792
▁mess	-1793
play	-1794
af	-1795
now	-1796
▁particular	-1797
▁reported	-1798
cer	-1799
irc	-1800
▁redu	-1801
ilt	-1802
▁whether	-1803
▁walk	-1804
ests	-1805
ald	-1806
▁added	-1807
▁Your	-1808
▁Pe	-1809
▁field	-1810
resent	-1811
▁age	-1812
▁players	-1813
idence	-1814
ulation	-1815
▁Monday	-1816
▁ey	-1817
▁Part	-1818
ports	-1819
iol	-1820
cri	-1821
▁watch	-1822
roll	-1823
▁Oct	-1824
ges	-1825
▁fall	-1826
▁asked	-1827
▁Bar	-1828
isk	-1829
▁study	-1830
▁heart	-1831
▁wind	-1832
▁specific	-1833
▁host	-1834
▁sound	-1835
ancial	-1836
▁Go	-1837
▁features	-1838
▁ste	-1839
▁building	-1840
▁Ke	-1841
▁Serv	-1842
▁pick	-1843
irt	-1844
▁eff	-1845
asing	-1846
▁companies	-1847
!!	-1848
▁Ge	-1849
▁believe	-1850
anks	-1851
me	-1852
▁Some	-1853
back	-1854
obal	-1855
▁enc	-1856
▁Tues	-1857
▁purch	-1858
▁taken	-1859
▁material	-1860
OR	-1861
▁office	-1862
▁Aug	-1863
oose	-1864
itter	-1865
▁address	-1866
▁Sm	-1867
▁Apr	-1868
▁everything	-1869
▁blog	-1870
▁upd	-1871
yl	-1872
▁*	-1873
▁idea	-1874
▁Sen	-1875
▁almost	-1876
▁prob	-1877
▁reason	-1878
ilar	-1879
▁Sund	-1880
▁due	-1881
▁energy	-1882
▁Republic	-1883
▁z	-1884
atural	-1885
ashing	-1886
ging	-1887
utions	-1888
▁pict	-1889
▁effort	-1890
ilities	-1891
not	-1892
▁girl	-1893
▁Tuesday	-1894
▁war	-1895
▁America	-1896
par	-1897
▁issues	-1898
▁coming	-1899
▁Russ	-1900
▁Qu	-1901
▁behind	-1902
▁recently	-1903
▁March	-1904
▁environment	-1905
ino	-1906
▁Satur	-1907
fact	-1908
▁Dem	-1909
▁Canad	-1910
▁someone	-1911
abor	-1912
▁doc	-1913
▁More	-1914
▁God	-1915
nding	-1916
▁sugg	-1917
▁weeks	-1918
ederal	-1919
▁stay	-1920
ask	-1921
AS	-1922
ining	-1923
rodu	-1924
ural	-1925
itted	-1926
▁port	-1927
▁buy	-1928
aur	-1929
umb	-1930
time	-1931
▁points	-1932
gress	-1933
▁focus	-1934
▁price	-1935
▁June	-1936
▁Dav	-1937
▁favor	-1938
__	-1939
▁fire	-1940
▁third	-1941
▁bar	-1942
▁Thurs	-1943
ili	-1944
▁investig	-1945
▁land	-1946
▁fre	-1947
though	-1948
▁Will	-1949
▁wanted	-1950
▁search	-1951
▁mag	-1952
iful	-1953
iod	-1954
▁likely	-1955
▁comput	-1956
▁Gl	-1957
▁questions	-1958
▁travel	-1959
▁County	-1960
iber	-1961
▁issue	-1962
▁hom	-1963
▁Saturday	-1964
▁cult	-1965
▁inj	-1966
ops	-1967
itch	-1968
▁trying	-1969
▁relations	-1970
▁black	-1971
▁popular	-1972
▁potential	-1973
▁tit	-1974
▁released	-1975
▁example	-1976
▁ens	-1977
lex	-1978
▁tool	-1979
isc	-1980
▁party	-1981
▁content	-1982
▁Per	-1983
▁:	-1984
▁Thursday	-1985
▁hope	-1986
▁death	-1987
▁bad	-1988
ana	-1989
icult	-1990
ung	-1991
▁West	-1992
wh	-1993
▁range	-1994
▁Wednes	-1995
amed	-1996
amer	-1997
▁pri	-1998
▁mot	-1999
▁security	-2000
▁common	-2001
▁Sept	-2002
▁Sunday	-2003
yn	-2004
▁His	-2005
▁protect	-2006
▁everyone	-2007
▁repl	-2008
ply	-2009
come	-2010
▁require	-2011
▁dig	-2012
head	-2013
ental	-2014
▁News	-2015
▁School	-2016
▁aud	-2017
▁Post	-2018
urch	-2019
▁vot	-2020
fully	-2021
▁Park	-2022
lebr	-2023
▁+	-2024
▁Af	-2025
elt	-2026
▁April	-2027
▁Wednesday	-2028
▁latest	-2029
EN	-2030
▁Pa	-2031
▁staff	-2032
ried	-2033
▁clean	-2034
▁anything	-2035
uge	-2036
rug	-2037
oe	-2038
▁From	-2039
▁pret	-2040
▁entire	-2041
▁national	-2042
▁vol	-2043
pecially	-2044
▁amount	-2045
▁customers	-2046
▁respons	-2047
arter	-2048
▁install	-2049
ogn	-2050
▁cred	-2051
ades	-2052
▁release	-2053
▁connect	-2054
oogle	-2055
vent	-2056
selves	-2057
▁July	-2058
//	-2059
IS	-2060
▁announced	-2061
▁Center	-2062
▁whole	-2063
▁aff	-2064
ibility	-2065
▁isn	-2066
lier	-2067
aged	-2068
▁sell	-2069
▁please	-2070
▁meas	-2071
▁Please	-2072
reme	-2073
ministr	-2074
▁Obama	-2075
empt	-2076
▁final	-2077
▁Mark	-2078
uation	-2079
▁ess	-2080
▁court	-2081
▁Mich	-2082
▁wond	-2083
▁parent	-2084
▁dou	-2085
ibr	-2086
uary	-2087
▁morning	-2088
▁oil	-2089
▁hit	-2090
▁phys	-2091
▁diff	-2092
resh	-2093
▁consum	-2094
ze	-2095
▁red	-2096
://	-2097
ole	-2098
▁article	-2099
▁vict	-2100
▁results	-2101
▁pretty	-2102
▁phone	-2103
▁white	-2104
ctor	-2105
itting	-2106
▁soon	-2107
hod	-2108
▁simple	-2109
ites	-2110
▁El	-2111
angu	-2112
▁quite	-2113
▁further	-2114
ES	-2115
▁War	-2116
▁Red	-2117
▁living	-2118
obile	-2119
aily	-2120
▁running	-2121
▁held	-2122
▁improve	-2123
arget	-2124
▁version	-2125
ler	-2126
▁shows	-2127
aced	-2128
AL	-2129
▁performance	-2130
▁offers	-2131
▁cand	-2132
opy	-2133
che	-2134
▁card	-2135
▁continue	-2136
▁fail	-2137
▁events	-2138
ively	-2139
▁Day	-2140
▁self	-2141
mb	-2142
▁viol	-2143
▁init	-2144
▁period	-2145
▁anim	-2146
overed	-2147
▁Add	-2148
▁ap	-2149
▁road	-2150
▁either	-2151
org	-2152
icro	-2153
▁role	-2154
▁sus	-2155
▁decision	-2156
▁Brit	-2157
▁Department	-2158
▁users	-2159
▁ways	-2160
▁rul	-2161
▁web	-2162
▁late	-2163
ises	-2164
▁outside	-2165
▁above	-2166
▁Feb	-2167
▁areas	-2168
cle	-2169
▁training	-2170
▁action	-2171
▁fig	-2172
▁signific	-2173
oved	-2174
olution	-2175
▁Sw	-2176
▁political	-2177
▁board	-2178
▁financial	-2179
▁Face	-2180
▁particip	-2181
ival	-2182
▁Par	-2183
ruction	-2184
ED	-2185
▁represent	-2186
ently	-2187
▁Act	-2188
cy	-2189
▁woman	-2190
▁wide	-2191
cast	-2192
▁stri	-2193
▁currently	-2194
▁concern	-2195
▁ground	-2196
ires	-2197
▁created	-2198
▁coun	-2199
▁however	-2200
▁includes	-2201
▁log	-2202
▁Cor	-2203
▁attack	-2204
▁answ	-2205
▁couple	-2206
oke	-2207
▁Google	-2208
▁received	-2209
▁designed	-2210
▁size	-2211
▁High	-2212
▁dam	-2213
rie	-2214
▁probably	-2215
▁Austral	-2216
ety	-2217
....	-2218
aging	-2219
ashington	-2220
.)	-2221
itten	-2222
ecut	-2223
▁needed	-2224
▁cal	-2225
▁unique	-2226
iff	-2227
aker	-2228
▁various	-2229
reg	-2230
▁consider	-2231
▁,	-2232
▁leaders	-2233
▁words	-2234
ham	-2235
▁summer	-2236
▁type	-2237
▁interview	-2238
▁First	-2239
▁beautiful	-2240
▁mass	-2241
▁forward	-2242
IT	-2243
based	-2244
na	-2245
▁link	-2246
▁celebr	-2247
▁fight	-2248
▁collect	-2249
▁prep	-2250
▁especially	-2251
off	-2252
▁track	-2253
bor	-2254
ese	-2255
vil	-2256
istrict	-2257
▁Har	-2258
▁began	-2259
▁tou	-2260
▁coll	-2261
▁Stud	-2262
▁impact	-2263
▁addition	-2264
▁San	-2265
▁Washington	-2266
chie	-2267
▁bo	-2268
ffe	-2269
▁TH	-2270
▁attend	-2271
▁details	-2272
▁goal	-2273
▁exist	-2274
iddle	-2275
kend	-2276
▁similar	-2277
▁x	-2278
▁town	-2279
▁relationship	-2280
▁Cour	-2281
▁seems	-2282
▁experienc	-2283
oud	-2284
ek	-2285
▁Int	-2286
▁member	-2287
▁According	-2288
▁Up	-2289
▁Reg	-2290
ams	-2291
▁decided	-2292
IC	-2293
ned	-2294
itary	-2295
cing	-2296
▁Mus	-2297
▁changes	-2298
aching	-2299
▁>	-2300
BC	-2301
lev	-2302
▁engine	-2303
▁difficult	-2304
▁takes	-2305
▁else	-2306
▁meeting	-2307
▁hon	-2308
▁describ	-2309
str	-2310
aving	-2311
▁recomm	-2312
▁Calif	-2313
pper	-2314
▁inside	-2315
right	-2316
▁assist	-2317
▁veh	-2318
▁provides	-2319
ournal	-2320
▁August	-2321
▁position	-2322
ees	-2323
▁Inc	-2324
▁network	-2325
▁po	-2326
▁via	-2327
▁statement	-2328
▁nothing	-2329
▁general	-2330
▁matter	-2331
▁character	-2332
▁playing	-2333
▁January	-2334
▁contract	-2335
▁Get	-2336
▁TV	-2337
▁recommend	-2338
my	-2339
ledge	-2340
inks	-2341
▁career	-2342
▁value	-2343
▁rad	-2344
lt	-2345
▁cover	-2346
attle	-2347
▁original	-2348
▁saying	-2349
▁stop	-2350
▁Off	-2351
astic	-2352
▁Democr	-2353
▁simply	-2354
▁suggest	-2355
▁hy	-2356
▁natural	-2357
AC	-2358
▁ball	-2359
▁problems	-2360
▁select	-2361
▁professional	-2362
▁rather	-2363
▁significant	-2364
ables	-2365
▁infl	-2366
▁total	-2367
▁Bu	-2368
medi	-2369
▁Art	-2370
▁stat	-2371
▁agre	-2372
▁paper	-2373
▁increase	-2374
sc	-2375
istic	-2376
▁Facebook	-2377
oid	-2378
hern	-2379
▁prot	-2380
▁ep	-2381
▁saw	-2382
ming	-2383
lim	-2384
▁Char	-2385
▁abs	-2386
▁October	-2387
ufact	-2388
▁date	-2389
▁tal	-2390
ovember	-2391
▁box	-2392
cil	-2393
▁song	-2394
▁September	-2395
eter	-2396
▁Germ	-2397
▁model	-2398
▁policy	-2399
▁anyone	-2400
▁attempt	-2401
▁reve	-2402
▁expected	-2403
▁inn	-2404
▁circ	-2405
ault	-2406
lus	-2407
▁target	-2408
iple	-2409
igr	-2410
▁appe	-2411
▁print	-2412
itte	-2413
▁true	-2414
▁UK	-2415
▁international	-2416
▁•	-2417
▁China	-2418
▁di	-2419
▁color	-2420
▁software	-2421
▁rights	-2422
▁squ	-2423
▁Her	-2424
▁dom	-2425
▁Fin	-2426
▁ready	-2427
▁plans	-2428
ached	-2429
▁longer	-2430
▁opportunity	-2431
▁bed	-2432
▁Ear	-2433
▁et	-2434
▁accept	-2435
▁writing	-2436
▁Us	-2437
ospital	-2438
▁fast	-2439
ester	-2440
▁Aut	-2441
▁Dis	-2442
▁regular	-2443
▁cook	-2444
ux	-2445
▁sat	-2446
ume	-2447
▁brand	-2448
▁reports	-2449
▁inde	-2450
▁private	-2451
atform	-2452
▁White	-2453
▁club	-2454
▁leave	-2455
▁property	-2456
▁kids	-2457
▁player	-2458
▁Gener	-2459
▁introdu	-2460
pite	-2461
▁risk	-2462
asons	-2463
▁played	-2464
▁lives	-2465
▁imm	-2466
ication	-2467
▁Of	-2468
icles	-2469
face	-2470
▁surpr	-2471
izing	-2472
▁safe	-2473
eth	-2474
▁November	-2475
▁recogn	-2476
oph	-2477
▁achie	-2478
▁countries	-2479
▁management	-2480
▁defe	-2481
▁lost	-2482
ession	-2483
▁dest	-2484
▁bill	-2485
▁gen	-2486
▁Pat	-2487
▁Black	-2488
su	-2489
like	-2490
▁Street	-2491
▁Ang	-2492
▁global	-2493
rote	-2494
▁table	-2495
▁neg	-2496
▁lear	-2497
▁bott	-2498
▁medical	-2499
ishing	-2500
▁receive	-2501
▁sales	-2502
▁extra	-2503
▁dog	-2504
▁moment	-2505
▁mach	-2506
▁firm	-2507
cember	-2508
▁method	-2509
▁Ag	-2510
ude	-2511
▁growth	-2512
key	-2513
▁weekend	-2514
▁cell	-2515
▁drug	-2516
▁systems	-2517
▁movie	-2518
▁swe	-2519
▁round	-2520
▁htt	-2521
▁worked	-2522
▁billion	-2523
▁deep	-2524
▁education	-2525
ening	-2526
▁sle	-2527
▁arg	-2528
▁legal	-2529
idge	-2530
▁Every	-2531
▁contrib	-2532
ring	-2533
▁included	-2534
St	-2535
▁throughout	-2536
urance	-2537
▁park	-2538
hel	-2539
▁Health	-2540
▁Californ	-2541
apt	-2542
▁langu	-2543
▁published	-2544
ny	-2545
anced	-2546
▁necess	-2547
apan	-2548
▁determ	-2549
▁Je	-2550
▁shoot	-2551
hood	-2552
idents	-2553
▁wasn	-2554
▁rate	-2555
▁fans	-2556
ground	-2557
▁prim	-2558
▁exact	-2559
ky	-2560
▁Val	-2561
▁required	-2562
▁David	-2563
▁quickly	-2564
▁became	-2565
▁lo	-2566
▁loss	-2567
light	-2568
▁ple	-2569
sec	-2570
irth	-2571
▁led	-2572
▁dead	-2573
ification	-2574
▁provided	-2575
ael	-2576
error	-2577
▁production	-2578
▁Associ	-2579
▁Ser	-2580
iter	-2581
oring	-2582
tain	-2583
▁pan	-2584
▁looks	-2585
▁boy	-2586
▁reading	-2587
▁clos	-2588
▁student	-2589
▁Net	-2590
▁estab	-2591
▁match	-2592
▁mid	-2593
▁sold	-2594
▁mother	-2595
▁leading	-2596
ondon	-2597
▁December	-2598
▁Pre	-2599
▁base	-2600
▁officials	-2601
▁fit	-2602
▁screen	-2603
▁California	-2604
▁Ir	-2605
▁insp	-2606
earch	-2607
▁subject	-2608
▁worth	-2609
▁ill	-2610
▁built	-2611
▁tour	-2612
▁federal	-2613
▁threat	-2614
▁associ	-2615
▁exam	-2616
uel	-2617
▁ful	-2618
▁higher	-2619
▁books	-2620
▁candid	-2621
▁flow	-2622
▁block	-2623
▁emer	-2624
▁style	-2625
In	-2626
oto	-2627
▁wrote	-2628
ray	-2629
ought	-2630
▁hol	-2631
ING	-2632
▁Tod	-2633
▁Soc	-2634
▁respect	-2635
▁regard	-2636
▁bud	-2637
aby	-2638
▁learning	-2639
rael	-2640
▁happy	-2641
board	-2642
▁Direct	-2643
ID	-2644
atory	-2645
▁chance	-2646
▁items	-2647
adem	-2648
▁Well	-2649
▁Let	-2650
▁involved	-2651
▁director	-2652
▁stru	-2653
▁function	-2654
▁defin	-2655
OU	-2656
▁options	-2657
▁Most	-2658
rown	-2659
wood	-2660
▁hands	-2661
hib	-2662
▁nearly	-2663
ha	-2664
▁affect	-2665
rect	-2666
iction	-2667
▁favorite	-2668
alt	-2669
▁Afric	-2670
▁sen	-2671
▁comment	-2672
▁drive	-2673
▁bank	-2674
▁Cons	-2675
▁Then	-2676
▁shot	-2677
azing	-2678
dd	-2679
▁London	-2680
atives	-2681
▁themselves	-2682
▁itself	-2683
▁ord	-2684
▁Wind	-2685
▁Japan	-2686
▁saf	-2687
rought	-2688
▁image	-2689
OT	-2690
▁comfort	-2691
▁groups	-2692
▁cool	-2693
▁practice	-2694
ittee	-2695
atter	-2696
akers	-2697
▁immedi	-2698
▁draw	-2699
avy	-2700
▁source	-2701
▁lay	-2702
▁computer	-2703
▁ensure	-2704
▁platform	-2705
▁customer	-2706
▁Sim	-2707
ruary	-2708
arc	-2709
▁ur	-2710
▁becom	-2711
▁adm	-2712
sy	-2713
▁Air	-2714
▁usually	-2715
▁goes	-2716
▁Over	-2717
▁Cr	-2718
▁Paul	-2719
ructure	-2720
▁jud	-2721
ett	-2722
▁administr	-2723
▁huge	-2724
▁states	-2725
alys	-2726
▁Court	-2727
amb	-2728
▁Last	-2729
▁manufact	-2730
▁mix	-2731
ivil	-2732
erous	-2733
itc	-2734
ville	-2735
▁yourself	-2736
▁object	-2737
▁sn	-2738
▁sun	-2739
rel	-2740
put	-2741
▁parents	-2742
▁user	-2743
▁nation	-2744
▁Coun	-2745
▁Are	-2746
▁broad	-2747
riving	-2748
▁Israel	-2749
erc	-2750
oom	-2751
▁military	-2752
oes	-2753
▁rev	-2754
▁norm	-2755
ms	-2756
▁earlier	-2757
▁International	-2758
▁instead	-2759
▁skin	-2760
▁autom	-2761
▁nice	-2762
▁download	-2763
▁bur	-2764
▁cause	-2765
▁Hol	-2766
nds	-2767
lin	-2768
▁express	-2769
▁wonder	-2770
illing	-2771
▁gun	-2772
▁heard	-2773
▁fresh	-2774
▁grad	-2775
▁Play	-2776
▁Twitter	-2777
▁choose	-2778
▁India	-2779
ding	-2780
▁click	-2781
▁cy	-2782
▁code	-2783
aled	-2784
▁wall	-2785
▁sil	-2786
ples	-2787
▁average	-2788
onse	-2789
bed	-2790
bit	-2791
▁sense	-2792
▁ability	-2793
▁teac	-2794
mon	-2795
▁wrong	-2796
▁Tex	-2797
▁pred	-2798
▁February	-2799
▁Police	-2800
ales	-2801
▁sens	-2802
airs	-2803
▁subs	-2804
▁capt	-2805
EO	-2806
▁Cong	-2807
AM	-2808
▁attention	-2809
▁aw	-2810
▁knowledge	-2811
▁feature	-2812
vey	-2813
▁spent	-2814
▁teams	-2815
▁cannot	-2816
unt	-2817
▁Why	-2818
iant	-2819
▁projects	-2820
▁application	-2821
▁modern	-2822
▁center	-2823
ida	-2824
uments	-2825
▁prior	-2826
▁deg	-2827
ma	-2828
▁iP	-2829
▁pull	-2830
val	-2831
▁cases	-2832
zz	-2833
▁starting	-2834
ij	-2835
▁neigh	-2836
▁Apple	-2837
▁digital	-2838
▁written	-2839
▁treatment	-2840
▁La	-2841
▁safety	-2842
▁obs	-2843
▁upon	-2844
▁additional	-2845
eds	-2846
▁King	-2847
▁Sch	-2848
where	-2849
▁stories	-2850
▁hor	-2851
▁race	-2852
▁credit	-2853
▁Pal	-2854
▁programs	-2855
▁Canada	-2856
ellow	-2857
▁allows	-2858
orge	-2859
▁purp	-2860
icated	-2861
▁piece	-2862
▁Since	-2863
▁hop	-2864
▁lab	-2865
▁terms	-2866
▁star	-2867
▁Ac	-2868
OS	-2869
uth	-2870
▁sett	-2871
raz	-2872
imum	-2873
▁Spe	-2874
▁div	-2875
▁East	-2876
▁hear	-2877
▁himself	-2878
ecutive	-2879
▁parts	-2880
This	-2881
▁camer	-2882
iring	-2883
▁arrest	-2884
▁gave	-2885
AP	-2886
icks	-2887
king	-2888
aves	-2889
▁slow	-2890
enge	-2891
▁display	-2892
▁choice	-2893
▁compl	-2894
uses	-2895
▁skills	-2896
▁economic	-2897
lying	-2898
▁scient	-2899
▁Super	-2900
inton	-2901
sp	-2902
down	-2903
▁located	-2904
▁depend	-2905
▁English	-2906
▁activities	-2907
▁variety	-2908
action	-2909
▁Even	-2910
ule	-2911
▁roll	-2912
▁thous	-2913
".	-2914
ipe	-2915
▁growing	-2916
ica	-2917
▁turned	-2918
▁Bus	-2919
▁write	-2920
▁levels	-2921
▁touch	-2922
▁ut	-2923
▁Many	-2924
▁previous	-2925
mercial	-2926
▁dro	-2927
▁Free	-2928
▁document	-2929
elcome	-2930
isl	-2931
▁option	-2932
▁title	-2933
▁request	-2934
ford	-2935
▁bi	-2936
▁pers	-2937
▁photos	-2938
acing	-2939
▁arch	-2940
▁etc	-2941
▁restaur	-2942
▁quarter	-2943
▁£	-2944
▁file	-2945
▁dise	-2946
band	-2947
▁myself	-2948
▁Trans	-2949
▁device	-2950
▁Today	-2951
EL	-2952
▁seven	-2953
▁Bel	-2954
▁Op	-2955
ament	-2956
▁Mor	-2957
▁son	-2958
▁respond	-2959
▁daily	-2960
▁gets	-2961
ara	-2962
order	-2963
erve	-2964
▁lower	-2965
ened	-2966
cription	-2967
▁Texas	-2968
▁fair	-2969
▁standard	-2970
bur	-2971
▁offe	-2972
▁challeng	-2973
▁Out	-2974
ension	-2975
▁approach	-2976
mas	-2977
alysis	-2978
ological	-2979
▁Hill	-2980
▁brought	-2981
ET	-2982
reng	-2983
▁related	-2984
▁vote	-2985
▁European	-2986
▁mobile	-2987
▁multiple	-2988
▁message	-2989
▁benefits	-2990
▁separ	-2991
▁integr	-2992
▁answer	-2993
▁conv	-2994
▁conduct	-2995
aint	-2996
▁interesting	-2997
▁father	-2998
▁hair	-2999
▁bal	-3000
▁Green	-3001
ilies	-3002
▁ideas	-3003
▁ones	-3004
itution	-3005
▁encour	-3006
▁lif	-3007
bum	-3008
anch	-3009
▁rout	-3010
urt	-3011
hold	-3012
▁Michael	-3013
iding	-3014
▁costs	-3015
▁sche	-3016
haps	-3017
▁green	-3018
▁easily	-3019
▁detail	-3020
▁Law	-3021
EC	-3022
▁college	-3023
▁response	-3024
idered	-3025
▁tick	-3026
Wh	-3027
enty	-3028
uk	-3029
▁James	-3030
▁plant	-3031
OM	-3032
omb	-3033
▁giving	-3034
▁eight	-3035
▁language	-3036
▁Met	-3037
▁blood	-3038
▁cat	-3039
▁Jack	-3040
ivity	-3041
iles	-3042
▁location	-3043
▁organization	-3044
▁felt	-3045
aries	-3046
”.	-3047
▁conditions	-3048
▁sort	-3049
ipment	-3050
▁ren	-3051
▁prem	-3052
▁remember	-3053
▁finally	-3054
rian	-3055
▁warm	-3056
▁Also	-3057
▁wants	-3058
aught	-3059
inary	-3060
▁Group	-3061
unk	-3062
IL	-3063
▁cup	-3064
▁band	-3065
▁extreme	-3066
estern	-3067
▁amazing	-3068
▁stra	-3069
▁smart	-3070
ares	-3071
rench	-3072
wide	-3073
▁cross	-3074
▁tried	-3075
▁situation	-3076
lam	-3077
aughter	-3078
▁collection	-3079
coming	-3080
▁birth	-3081
▁largest	-3082
▁providing	-3083
▁photo	-3084
just	-3085
undred	-3086
venue	-3087
▁save	-3088
ampions	-3089
▁Other	-3090
ibly	-3091
▁Indian	-3092
▁demand	-3093
hest	-3094
▁enter	-3095
ago	-3096
▁Clinton	-3097
▁named	-3098
ipping	-3099
iers	-3100
agement	-3101
▁ge	-3102
oul	-3103
▁election	-3104
▁aim	-3105
▁effic	-3106
▁Del	-3107
▁vac	-3108
yond	-3109
▁clients	-3110
▁purchase	-3111
▁highly	-3112
itiz	-3113
aches	-3114
▁budget	-3115
▁biggest	-3116
ico	-3117
cement	-3118
omen	-3119
ags	-3120
▁attract	-3121
imately	-3122
▁ri	-3123
▁subm	-3124
▁marketing	-3125
itute	-3126
▁carry	-3127
▁comments	-3128
▁Any	-3129
okes	-3130
field	-3131
▁Dan	-3132
▁leader	-3133
▁decl	-3134
▁Great	-3135
rec	-3136
▁completely	-3137
▁College	-3138
▁Prof	-3139
▁weight	-3140
ube	-3141
pm	-3142
▁reach	-3143
▁goals	-3144
▁Mod	-3145
▁region	-3146
▁dark	-3147
▁send	-3148
▁copy	-3149
▁prevent	-3150
▁British	-3151
opping	-3152
▁conference	-3153
▁partners	-3154
▁@	-3155
▁whose	-3156
▁mount	-3157
▁progress	-3158
▁door	-3159
▁note	-3160
▁images	-3161
ications	-3162
▁stock	-3163
ager	-3164
▁mis	-3165
▁我	-3166
▁thinking	-3167
▁businesses	-3168
▁patients	-3169
▁influ	-3170
▁Republican	-3171
▁promot	-3172
▁Port	-3173
▁rock	-3174
▁arriv	-3175
gar	-3176
▁resources	-3177
▁numbers	-3178
▁Flor	-3179
▁doll	-3180
▁Rich	-3181
He	-3182
▁feed	-3183
▁Mag	-3184
▁hour	-3185
▁fix	-3186
▁happened	-3187
elling	-3188
▁William	-3189
▁stuff	-3190
▁den	-3191
▁gas	-3192
▁launch	-3193
▁dream	-3194
▁trust	-3195
▁knew	-3196
▁Cle	-3197
bl	-3198
mp	-3199
▁wife	-3200
▁considered	-3201
▁histor	-3202
▁AM	-3203
▁floor	-3204
ustr	-3205
▁successful	-3206
▁traditional	-3207
ctions	-3208
▁convers	-3209
▁gives	-3210
▁wood	-3211
▁employees	-3212
▁我在	-3213
▁exactly	-3214
▁tast	-3215
ech	-3216
▁positive	-3217
▁mention	-3218
▁Congress	-3219
irit	-3220
▁trade	-3221
▁Sub	-3222
▁Tra	-3223
▁Internet	-3224
▁planning	-3225
▁directly	-3226
▁complex	-3227
▁ahead	-3228
iation	-3229
ston	-3230
▁farm	-3231
rast	-3232
▁qual	-3233
uted	-3234
▁capital	-3235
▁evidence	-3236
▁types	-3237
▁increasing	-3238
ores	-3239
▁fine	-3240
▁hous	-3241
▁essential	-3242
▁Rom	-3243
▁picture	-3244
▁killed	-3245
▁lic	-3246
▁fem	-3247
ception	-3248
▁prices	-3249
▁ded	-3250
▁trip	-3251
▁coach	-3252
▁Service	-3253
▁ten	-3254
▁streng	-3255
▁developed	-3256
wor	-3257
iced	-3258
▁Angel	-3259
▁tools	-3260
▁Gold	-3261
isions	-3262
ellig	-3263
▁organiz	-3264
▁creating	-3265
olf	-3266
ength	-3267
▁impress	-3268
▁sometimes	-3269
asc	-3270
▁Rec	-3271
itchen	-3272
add	-3273
ari	-3274
▁Two	-3275
▁adult	-3276
▁stage	-3277
▁PM	-3278
▁Council	-3279
▁gold	-3280
▁eye	-3281
▁speed	-3282
▁League	-3283
pa	-3284
▁analy	-3285
▁Ant	-3286
▁independ	-3287
▁regul	-3288
▁Home	-3289
▁album	-3290
▁families	-3291
▁ver	-3292
▁Mac	-3293
▁concept	-3294
▁relig	-3295
rows	-3296
▁Star	-3297
▁Micro	-3298
▁dress	-3299
▁er	-3300
▁award	-3301
ancy	-3302
▁Bre	-3303
osition	-3304
ibrary	-3305
▁tur	-3306
▁ult	-3307
▁excell	-3308
▁Oh	-3309
▁Govern	-3310
ban	-3311
▁innov	-3312
▁interested	-3313
inated	-3314
fl	-3315
▁victim	-3316
▁beginning	-3317
▁Hall	-3318
▁talking	-3319
▁fully	-3320
▁physical	-3321
▁Techn	-3322
▁serious	-3323
▁effective	-3324
▁Rober	-3325
▁limited	-3326
▁Business	-3327
▁THE	-3328
▁necessary	-3329
istry	-3330
▁sites	-3331
mm	-3332
▁II	-3333
▁secret	-3334
ceed	-3335
▁individuals	-3336
▁schools	-3337
▁implement	-3338
▁Windows	-3339
▁moving	-3340
aling	-3341
▁spot	-3342
▁distrib	-3343
▁Australia	-3344
▁solution	-3345
▁annual	-3346
roid	-3347
▁poll	-3348
▁hospital	-3349
het	-3350
▁demon	-3351
body	-3352
▁aware	-3353
▁Office	-3354
▁posted	-3355
▁imag	-3356
urer	-3357
▁jobs	-3358
▁places	-3359
ography	-3360
itation	-3361
▁science	-3362
osing	-3363
▁strugg	-3364
▁join	-3365
▁force	-3366
▁Mart	-3367
▁condition	-3368
omp	-3369
▁initial	-3370
▁perm	-3371
▁IS	-3372
▁behav	-3373
▁hundred	-3374
▁Inter	-3375
AD	-3376
▁Jo	-3377
▁deliver	-3378
▁spend	-3379
unities	-3380
▁uses	-3381
▁paid	-3382
OL	-3383
US	-3384
▁path	-3385
▁middle	-3386
▁insurance	-3387
▁feet	-3388
tr	-3389
▁allowed	-3390
▁Design	-3391
arden	-3392
▁died	-3393
▁looked	-3394
▁Once	-3395
▁Good	-3396
uate	-3397
ocks	-3398
▁rules	-3399
▁Donald	-3400
▁economy	-3401
▁Christmas	-3402
▁lack	-3403
▁football	-3404
▁grand	-3405
▁appl	-3406
box	-3407
▁letter	-3408
▁changed	-3409
▁towards	-3410
▁lik	-3411
▁commercial	-3412
arily	-3413
▁consist	-3414
cause	-3415
sych	-3416
▁straight	-3417
set	-3418
izes	-3419
▁Year	-3420
▁anti	-3421
soft	-3422
ences	-3423
▁workers	-3424
ram	-3425
▁eyes	-3426
▁owners	-3427
▁Florida	-3428
▁internet	-3429
bon	-3430
▁devices	-3431
iance	-3432
▁charge	-3433
▁nature	-3434
▁vehicle	-3435
▁helps	-3436
itely	-3437
oses	-3438
ounds	-3439
▁avoid	-3440
iable	-3441
▁achieve	-3442
▁Spr	-3443
▁overall	-3444
▁Det	-3445
▁baby	-3446
▁pen	-3447
ashion	-3448
▁During	-3449
▁Americans	-3450
▁Rob	-3451
pre	-3452
▁Sand	-3453
ipped	-3454
▁rob	-3455
▁born	-3456
▁correct	-3457
▁Web	-3458
▁Tom	-3459
▁Bay	-3460
mark	-3461
▁applications	-3462
▁culture	-3463
sey	-3464
vis	-3465
▁General	-3466
▁French	-3467
▁Click	-3468
▁Each	-3469
▁manager	-3470
rief	-3471
▁remain	-3472
▁miles	-3473
▁reb	-3474
▁speak	-3475
▁Whe	-3476
ords	-3477
OP	-3478
▁legisl	-3479
▁Book	-3480
▁sale	-3481
▁fear	-3482
▁cast	-3483
▁civil	-3484
rences	-3485
▁Sur	-3486
▁opening	-3487
orage	-3488
▁Although	-3489
▁drink	-3490
▁immediately	-3491
▁advant	-3492
ocol	-3493
dom	-3494
erry	-3495
▁expert	-3496
house	-3497
▁healthy	-3498
▁dang	-3499
▁corpor	-3500
▁equipment	-3501
ivery	-3502
▁AN	-3503
aine	-3504
▁Ben	-3505
▁surv	-3506
erved	-3507
▁heat	-3508
▁challenge	-3509
vest	-3510
change	-3511
▁feeling	-3512
▁Big	-3513
amm	-3514
▁sleep	-3515
▁temper	-3516
▁Times	-3517
▁scene	-3518
yth	-3519
▁Phil	-3520
▁analysis	-3521
ented	-3522
▁Bill	-3523
▁thousands	-3524
▁reasons	-3525
net	-3526
▁particularly	-3527
▁acqu	-3528
▁Best	-3529
more	-3530
▁blue	-3531
▁wait	-3532
▁pow	-3533
▁Association	-3534
rive	-3535
▁fan	-3536
▁wild	-3537
▁prec	-3538
▁moved	-3539
▁journal	-3540
▁Develop	-3541
olute	-3542
icate	-3543
▁efforts	-3544
aming	-3545
lements	-3546
▁Tor	-3547
▁occur	-3548
▁reduce	-3549
▁gar	-3550
inese	-3551
▁offered	-3552
▁See	-3553
▁spread	-3554
▁pet	-3555
▁Check	-3556
▁und	-3557
▁Loc	-3558
▁senior	-3559
▁Mem	-3560
▁advert	-3561
rowd	-3562
▁Sun	-3563
▁Public	-3564
▁machine	-3565
nded	-3566
▁activity	-3567
▁epis	-3568
▁http	-3569
▁surround	-3570
▁Thanks	-3571
▁Found	-3572
▁inform	-3573
▁Mex	-3574
▁Rem	-3575
▁laun	-3576
Re	-3577
ously	-3578
▁materials	-3579
▁helped	-3580
▁beyond	-3581
using	-3582
▁demonstr	-3583
▁About	-3584
ado	-3585
ota	-3586
▁gone	-3587
▁powerful	-3588
▁eat	-3589
▁serve	-3590
▁Sk	-3591
ategy	-3592
▁meaning	-3593
▁construction	-3594
TM	-3595
▁doub	-3596
▁increased	-3597
▁extend	-3598
esterday	-3599
▁expand	-3600
inner	-3601
▁trail	-3602
▁suit	-3603
istan	-3604
▁Services	-3605
▁sports	-3606
▁glass	-3607
▁fat	-3608
icip	-3609
▁Minister	-3610
▁altern	-3611
▁People	-3612
▁aren	-3613
que	-3614
▁Sol	-3615
inger	-3616
▁calls	-3617
▁Sa	-3618
▁section	-3619
▁passed	-3620
antly	-3621
▁certainly	-3622
ffee	-3623
**	-3624
anta	-3625
▁Work	-3626
iny	-3627
▁pattern	-3628
ruit	-3629
▁Hot	-3630
▁Franc	-3631
▁disp	-3632
▁subst	-3633
▁AP	-3634
ooth	-3635
▁claims	-3636
▁difference	-3637
duc	-3638
arant	-3639
▁effects	-3640
▁Av	-3641
wise	-3642
▁Research	-3643
▁IN	-3644
orney	-3645
owl	-3646
name	-3647
▁stress	-3648
▁agency	-3649
▁Under	-3650
▁mill	-3651
▁homes	-3652
rey	-3653
▁offering	-3654
▁alone	-3655
▁terror	-3656
▁couldn	-3657
▁Alex	-3658
▁administration	-3659
▁Program	-3660
▁investment	-3661
sequ	-3662
▁Chic	-3663
FL	-3664
pects	-3665
▁pressure	-3666
▁Time	-3667
▁followed	-3668
ona	-3669
▁maybe	-3670
▁Road	-3671
▁hus	-3672
▁Senate	-3673
orters	-3674
▁Back	-3675
▁double	-3676
cul	-3677
▁Top	-3678
▁ban	-3679
▁Kore	-3680
▁train	-3681
▁McC	-3682
▁System	-3683
▁emot	-3684
▁England	-3685
▁Cur	-3686
▁Director	-3687
▁characters	-3688
▁disease	-3689
rial	-3690
▁opportunities	-3691
▁cas	-3692
▁Scott	-3693
friend	-3694
ken	-3695
▁Like	-3696
phone	-3697
▁strateg	-3698
▁beg	-3699
▁stream	-3700
▁exerc	-3701
▁citiz	-3702
▁repe	-3703
▁Rel	-3704
vin	-3705
▁movement	-3706
▁rates	-3707
▁disapp	-3708
umn	-3709
▁weather	-3710
▁cash	-3711
▁reflect	-3712
▁solutions	-3713
estival	-3714
▁served	-3715
▁dry	-3716
berg	-3717
▁pictures	-3718
asy	-3719
▁camera	-3720
▁opin	-3721
▁guy	-3722
▁Bank	-3723
inn	-3724
▁Russia	-3725
▁Chinese	-3726
▁consult	-3727
▁driving	-3728
cript	-3729
▁Lou	-3730
):	-3731
▁cancer	-3732
▁categ	-3733
▁chief	-3734
iled	-3735
oms	-3736
▁highest	-3737
▁Tur	-3738
▁foreign	-3739
ancing	-3740
ION	-3741
▁ble	-3742
▁Matt	-3743
iller	-3744
▁lines	-3745
▁researc	-3746
▁population	-3747
▁jump	-3748
orrow	-3749
▁despite	-3750
▁brain	-3751
▁partner	-3752
▁Cap	-3753
▁understanding	-3754
▁damage	-3755
itect	-3756
▁measure	-3757
▁Sl	-3758
▁Brown	-3759
▁active	-3760
▁brother	-3761
▁Party	-3762
▁station	-3763
uty	-3764
▁apply	-3765
▁showed	-3766
▁continued	-3767
ria	-3768
▁load	-3769
oly	-3770
lands	-3771
▁frequ	-3772
▁Mil	-3773
▁rent	-3774
▁Down	-3775
▁wish	-3776
▁PC	-3777
▁basic	-3778
▁investigation	-3779
▁Who	-3780
▁Club	-3781
chan	-3782
iate	-3783
irmed	-3784
▁Att	-3785
▁Board	-3786
▁transport	-3787
▁Commission	-3788
Ch	-3789
▁climate	-3790
▁Supp	-3791
▁guys	-3792
uing	-3793
▁electric	-3794
▁cold	-3795
PS	-3796
▁ing	-3797
▁emb	-3798
▁ST	-3799
▁cry	-3800
iverse	-3801
pri	-3802
imin	-3803
▁reality	-3804
▁nut	-3805
▁although	-3806
▁mission	-3807
▁sem	-3808
ga	-3809
gency	-3810
▁sources	-3811
▁Sil	-3812
▁Russian	-3813
▁trou	-3814
▁Miss	-3815
▁Smith	-3816
▁figure	-3817
cel	-3818
anging	-3819
▁crowd	-3820
www	-3821
aith	-3822
▁wat	-3823
▁haven	-3824
▁cru	-3825
useum	-3826
▁origin	-3827
▁signed	-3828
▁max	-3829
▁Sam	-3830
▁spending	-3831
kn	-3832
▁shop	-3833
▁Follow	-3834
▁residents	-3835
▁Pet	-3836
▁excellent	-3837
▁wed	-3838
ronic	-3839
agon	-3840
▁Because	-3841
gers	-3842
▁Microsoft	-3843
▁continues	-3844
▁Str	-3845
ander	-3846
▁primary	-3847
▁Class	-3848
▁twe	-3849
You	-3850
opped	-3851
▁virt	-3852
▁Ann	-3853
iling	-3854
▁Camp	-3855
▁Chicago	-3856
azon	-3857
▁bul	-3858
▁contain	-3859
ties	-3860
urd	-3861
▁finished	-3862
atever	-3863
see	-3864
▁ter	-3865
▁responsible	-3866
▁learned	-3867
▁pros	-3868
ipp	-3869
▁cert	-3870
▁poor	-3871
▁cars	-3872
▁update	-3873
▁nom	-3874
▁owner	-3875
▁liter	-3876
▁finish	-3877
▁officers	-3878
EM	-3879
▁bottom	-3880
▁cards	-3881
ady	-3882
▁chem	-3883
part	-3884
▁names	-3885
▁runs	-3886
▁spokes	-3887
▁shown	-3888
▁helping	-3889
▁Ty	-3890
▁cris	-3891
riage	-3892
▁vill	-3893
▁fab	-3894
▁officer	-3895
▁Hel	-3896
rupt	-3897
▁appears	-3898
▁produce	-3899
▁retail	-3900
▁easier	-3901
ss	-3902
▁weap	-3903
▁compared	-3904
orial	-3905
▁Rock	-3906
istics	-3907
▁daughter	-3908
?”	-3909
▁Find	-3910
▁street	-3911
▁voice	-3912
ios	-3913
▁purpose	-3914
ifying	-3915
▁district	-3916
▁George	-3917
▁husband	-3918
ocked	-3919
▁Vir	-3920
azine	-3921
▁Mary	-3922
▁occas	-3923
▁Dec	-3924
▁peace	-3925
▁normal	-3926
▁Ev	-3927
▁Form	-3928
ero	-3929
▁Fire	-3930
▁sust	-3931
▁remains	-3932
____	-3933
▁adding	-3934
▁alle	-3935
▁century	-3936
place	-3937
ourney	-3938
roud	-3939
▁benefit	-3940
▁esc	-3941
▁steps	-3942
▁Educ	-3943
▁Mal	-3944
▁background	-3945
DA	-3946
▁obv	-3947
▁Church	-3948
▁existing	-3949
agn	-3950
▁evening	-3951
▁incred	-3952
▁Show	-3953
▁girls	-3954
icted	-3955
encies	-3956
▁hotel	-3957
▁fant	-3958
▁Open	-3959
annel	-3960
▁church	-3961
▁Look	-3962
▁guide	-3963
----	-3964
输入	-3965
▁kitchen	-3966
▁opened	-3967
▁Christian	-3968
osh	-3969
noon	-3970
hedul	-3971
icon	-3972
▁accur	-3973
▁输入	-3974
▁District	-3975
▁loved	-3976
▁CEO	-3977
▁executive	-3978
▁beat	-3979
rig	-3980
▁creative	-3981
▁commit	-3982
▁pieces	-3983
BS	-3984
▁shared	-3985
▁definitely	-3986
▁Jew	-3987
▁majority	-3988
▁strategy	-3989
▁som	-3990
▁appoint	-3991
▁traffic	-3992
▁competition	-3993
gen	-3994
▁neighbor	-3995
▁previously	-3996
▁setting	-3997
za	-3998
▁Thank	-3999
▁sexual	-4000
▁Press	-4001
▁seeing	-4002
▁income	-4003
nection	-4004
▁notice	-4005
hips	-4006
craft	-4007
",	-4008
▁Review	-4009
▁princ	-4010
▁collabor	-4011
▁Islam	-4012
▁Sal	-4013
lished	-4014
▁gift	-4015
term	-4016
▁excited	-4017
itz	-4018
▁Earth	-4019
▁thanks	-4020
lear	-4021
▁Mad	-4022
onents	-4023
▁profession	-4024
▁Make	-4025
oos	-4026
yan	-4027
BA	-4028
▁Market	-4029
▁absolute	-4030
▁truly	-4031
unte	-4032
▁Bur	-4033
LE	-4034
▁Ve	-4035
▁Cup	-4036
mat	-4037
levision	-4038
▁assess	-4039
olic	-4040
la	-4041
▁Los	-4042
▁sweet	-4043
▁Fam	-4044
▁rare	-4045
▁Hum	-4046
dule	-4047
▁Sing	-4048
elligence	-4049
▁caused	-4050
▁rank	-4051
▁alleged	-4052
▁rap	-4053
itness	-4054
▁slight	-4055
▁USA	-4056
ym	-4057
▁Care	-4058
▁Union	-4059
▁heavy	-4060
▁critical	-4061
ror	-4062
▁mer	-4063
iment	-4064
CC	-4065
▁Ber	-4066
yer	-4067
▁enh	-4068
edy	-4069
▁charges	-4070
▁ice	-4071
▁onto	-4072
hens	-4073
▁driver	-4074
▁exclus	-4075
▁perhaps	-4076
▁novel	-4077
▁advice	-4078
▁View	-4079
▁Mike	-4080
IA	-4081
▁Chris	-4082
▁society	-4083
care	-4084
▁kept	-4085
▁lots	-4086
iest	-4087
icious	-4088
▁Life	-4089
▁appropri	-4090
▁Yes	-4091
▁afford	-4092
edom	-4093
unately	-4094
▁Step	-4095
▁extremely	-4096
▁wear	-4097
aked	-4098
outhern	-4099
▁Institute	-4100
▁pages	-4101
▁estim	-4102
▁requirements	-4103
hone	-4104
▁Jes	-4105
▁ton	-4106
▁chair	-4107
IP	-4108
▁videos	-4109
itar	-4110
▁adop	-4111
▁conserv	-4112
▁Francis	-4113
▁Fore	-4114
▁meant	-4115
▁launched	-4116
▁River	-4117
▁drop	-4118
▁Media	-4119
▁RE	-4120
▁length	-4121
▁clot	-4122
▁Use	-4123
men	-4124
▁toward	-4125
atively	-4126
▁larger	-4127
▁Plan	-4128
ologies	-4129
▁schedul	-4130
▁produced	-4131
▁confirmed	-4132
ki	-4133
▁spirit	-4134
▁afternoon	-4135
ula	-4136
OW	-4137
▁leaving	-4138
▁Game	-4139
▁forces	-4140
oving	-4141
▁Wall	-4142
▁described	-4143
oyal	-4144
inter	-4145
▁storage	-4146
night	-4147
▁degree	-4148
▁IT	-4149
ucky	-4150
▁cities	-4151
▁Lear	-4152
▁Vis	-4153
▁Offic	-4154
▁completed	-4155
▁raised	-4156
▁ended	-4157
imal	-4158
eless	-4159
▁Photo	-4160
▁client	-4161
uries	-4162
▁Sign	-4163
IV	-4164
vant	-4165
itude	-4166
▁department	-4167
▁Carol	-4168
iminal	-4169
▁restr	-4170
▁revealed	-4171
▁models	-4172
▁audience	-4173
▁surface	-4174
▁score	-4175
▁Jud	-4176
▁Color	-4177
▁brief	-4178
▁organizations	-4179
▁delivery	-4180
▁knows	-4181
▁suff	-4182
RA	-4183
▁shut	-4184
orter	-4185
gl	-4186
▁bath	-4187
▁operations	-4188
▁Amazon	-4189
▁appeared	-4190
▁unit	-4191
▁polic	-4192
▁boo	-4193
▁supply	-4194
▁Def	-4195
▁plus	-4196
▁wonderful	-4197
▁pair	-4198
▁experienced	-4199
▁greater	-4200
▁central	-4201
▁Lake	-4202
▁challenges	-4203
ya	-4204
▁files	-4205
▁basis	-4206
▁showing	-4207
▁speech	-4208
▁window	-4209
▁Jer	-4210
▁dating	-4211
text	-4212
▁interact	-4213
oves	-4214
▁prison	-4215
SA	-4216
orthern	-4217
▁Take	-4218
▁Germany	-4219
▁finding	-4220
▁kick	-4221
▁graph	-4222
▁watching	-4223
▁Team	-4224
▁Tim	-4225
▁winning	-4226
▁apprec	-4227
▁regarding	-4228
▁Cre	-4229
▁lands	-4230
▁Robert	-4231
igan	-4232
▁batter	-4233
▁har	-4234
▁Hist	-4235
▁summ	-4236
▁Power	-4237
▁wouldn	-4238
▁artist	-4239
▁records	-4240
▁yesterday	-4241
▁clin	-4242
▁Committee	-4243
▁famous	-4244
▁battle	-4245
▁decades	-4246
▁laws	-4247
▁Ins	-4248
▁craft	-4249
▁studies	-4250
▁Enter	-4251
▁exhib	-4252
▁views	-4253
▁Mount	-4254
▁status	-4255
▁becoming	-4256
acity	-4257
▁mist	-4258
”,	-4259
cribe	-4260
▁harm	-4261
▁Android	-4262
▁agreement	-4263
▁associated	-4264
▁defense	-4265
▁×	-4266
fit	-4267
▁scen	-4268
▁Security	-4269
illa	-4270
▁Iran	-4271
▁Wil	-4272
▁spring	-4273
▁Thom	-4274
▁counter	-4275
▁Child	-4276
▁closed	-4277
semb	-4278
▁older	-4279
▁shooting	-4280
▁tim	-4281
iliar	-4282
▁secure	-4283
▁animals	-4284
▁Que	-4285
▁joined	-4286
▁instruct	-4287
▁psych	-4288
▁Project	-4289
works	-4290
▁France	-4291
▁restaurant	-4292
ront	-4293
▁Bet	-4294
▁thank	-4295
▁Before	-4296
▁Atl	-4297
▁Have	-4298
▁fashion	-4299
porary	-4300
▁Central	-4301
ae	-4302
▁strength	-4303
▁calling	-4304
▁transfer	-4305
▁advantage	-4306
▁Company	-4307
going	-4308
▁protection	-4309
▁session	-4310
▁German	-4311
den	-4312
▁proud	-4313
▁Water	-4314
▁coffee	-4315
▁earn	-4316
▁adjust	-4317
▁communities	-4318
▁survey	-4319
OV	-4320
ooper	-4321
▁bag	-4322
oices	-4323
▁journey	-4324
well	-4325
▁proced	-4326
apter	-4327
▁arrested	-4328
▁testing	-4329
ka	-4330
▁asking	-4331
▁prefer	-4332
▁candidate	-4333
▁violence	-4334
▁incident	-4335
▁injury	-4336
▁critic	-4337
▁winter	-4338
▁documents	-4339
▁south	-4340
▁attacks	-4341
▁Tre	-4342
▁Angeles	-4343
▁Africa	-4344
▁Mass	-4345
CA	-4346
SP	-4347
esome	-4348
▁Their	-4349
▁outd	-4350
estic	-4351
▁Ira	-4352
▁il	-4353
ading	-4354
▁satis	-4355
▁guarant	-4356
If	-4357
▁connection	-4358
▁immigr	-4359
gn	-4360
atures	-4361
▁stick	-4362
▁Democratic	-4363
oop	-4364
▁north	-4365
atically	-4366
vere	-4367
▁flav	-4368
▁requires	-4369
▁Call	-4370
arks	-4371
▁debate	-4372
▁snow	-4373
▁experts	-4374
▁Both	-4375
▁Blue	-4376
▁Love	-4377
▁solid	-4378
▁Grand	-4379
▁structure	-4380
enture	-4381
IM	-4382
antic	-4383
▁holiday	-4384
▁nine	-4385
▁placed	-4386
▁hearing	-4387
▁stre	-4388
▁classic	-4389
overy	-4390
▁Ham	-4391
▁truth	-4392
known	-4393
▁funding	-4394
odes	-4395
▁failed	-4396
▁waiting	-4397
▁rise	-4398
▁catch	-4399
ENT	-4400
▁Real	-4401
▁rain	-4402
▁fell	-4403
▁academ	-4404
▁happens	-4405
▁Image	-4406
coin	-4407
▁covered	-4408
▁developing	-4409
▁researchers	-4410
example	-4411
▁Science	-4412
▁arr	-4413
▁Profess	-4414
▁presidential	-4415
▁Jim	-4416
free	-4417
There	-4418
▁concerns	-4419
▁reached	-4420
▁Virgin	-4421
uclear	-4422
▁ship	-4423
▁standards	-4424
▁fol	-4425
▁mostly	-4426
▁remind	-4427
ayer	-4428
▁starts	-4429
bert	-4430
▁charged	-4431
▁established	-4432
▁selection	-4433
▁fourth	-4434
▁breat	-4435
▁Another	-4436
BI	-4437
▁Secret	-4438
bing	-4439
gu	-4440
▁dat	-4441
▁draft	-4442
▁Mel	-4443
▁Jeff	-4444
▁welcome	-4445
standing	-4446
▁passion	-4447
press	-4448
roy	-4449
▁suppl	-4450
▁Special	-4451
▁dedicated	-4452
ils	-4453
▁comfortable	-4454
PA	-4455
▁EU	-4456
▁Iraq	-4457
▁Frank	-4458
▁Wood	-4459
▁patient	-4460
▁establish	-4461
ounder	-4462
▁Ret	-4463
rd	-4464
▁seemed	-4465
ctors	-4466
▁female	-4467
▁Mont	-4468
▁ingred	-4469
▁radio	-4470
▁Island	-4471
ipl	-4472
▁plenty	-4473
▁pool	-4474
▁Nov	-4475
▁Rad	-4476
▁somew	-4477
istered	-4478
▁shopping	-4479
▁egg	-4480
▁league	-4481
▁map	-4482
▁cloud	-4483
▁refer	-4484
▁bought	-4485
▁reviews	-4486
▁master	-4487
▁sport	-4488
ette	-4489
▁Mer	-4490
▁memory	-4491
CH	-4492
▁Elect	-4493
▁rich	-4494
▁iPhone	-4495
▁edit	-4496
▁discovered	-4497
icine	-4498
▁independent	-4499
state	-4500
▁actual	-4501
▁Louis	-4502
ste	-4503
enses	-4504
lor	-4505
ads	-4506
aven	-4507
bre	-4508
▁parties	-4509
▁Online	-4510
igned	-4511
iques	-4512
▁links	-4513
▁missing	-4514
▁apparent	-4515
ada	-4516
met	-4517
▁Foundation	-4518
issions	-4519
▁keeping	-4520
▁experiences	-4521
▁UN	-4522
▁Education	-4523
▁fish	-4524
▁Const	-4525
▁<	-4526
ixt	-4527
▁propos	-4528
▁allowing	-4529
▁Watch	-4530
▁dire	-4531
▁Information	-4532
▁grant	-4533
pective	-4534
zen	-4535
▁mechan	-4536
▁actions	-4537
▁gra	-4538
win	-4539
▁Mot	-4540
▁Upd	-4541
▁television	-4542
ograp	-4543
▁citizens	-4544
▁vir	-4545
▁Chief	-4546
outs	-4547
▁TO	-4548
unning	-4549
▁Joe	-4550
▁operating	-4551
▁List	-4552
▁resist	-4553
▁leadership	-4554
▁explore	-4555
▁unc	-4556
aks	-4557
▁Hy	-4558
▁tips	-4559
▁monitor	-4560
▁task	-4561
▁forced	-4562
▁hundreds	-4563
▁trial	-4564
▁approx	-4565
▁scr	-4566
▁presented	-4567
▁bright	-4568
▁focused	-4569
life	-4570
▁guess	-4571
▁vs	-4572
▁Food	-4573
▁corner	-4574
ython	-4575
▁initi	-4576
▁species	-4577
icken	-4578
▁lose	-4579
asp	-4580
▁coverage	-4581
▁pus	-4582
▁enfor	-4583
▁Social	-4584
▁estate	-4585
cks	-4586
▁shape	-4587
▁putting	-4588
mail	-4589
▁Custom	-4590
▁Fort	-4591
▁kid	-4592
▁ir	-4593
▁cab	-4594
▁Music	-4595
▁sty	-4596
point	-4597
▁suspect	-4598
▁gain	-4599
▁eval	-4600
▁listed	-4601
iders	-4602
▁Community	-4603
▁marriage	-4604
▁eventually	-4605
▁managed	-4606
▁Product	-4607
▁throw	-4608
▁crime	-4609
▁faith	-4610
▁generally	-4611
▁crisis	-4612
▁episode	-4613
osure	-4614
▁earth	-4615
▁core	-4616
ements	-4617
no	-4618
▁tend	-4619
▁Government	-4620
▁illeg	-4621
apers	-4622
▁Fre	-4623
▁Vol	-4624
▁Den	-4625
▁motor	-4626
▁caught	-4627
▁wedding	-4628
look	-4629
▁teen	-4630
▁vision	-4631
▁spl	-4632
UT	-4633
▁limit	-4634
▁Lab	-4635
▁schedule	-4636
▁Long	-4637
▁posts	-4638
▁issued	-4639
alled	-4640
▁mur	-4641
▁thr	-4642
▁minute	-4643
▁Western	-4644
▁contains	-4645
▁Card	-4646
▁Lat	-4647
▁Gal	-4648
▁funds	-4649
▁minor	-4650
▁package	-4651
▁paint	-4652
▁exciting	-4653
▁architect	-4654
idel	-4655
▁victory	-4656
▁volunte	-4657
▁rac	-4658
▁Johnson	-4659
▁Richard	-4660
▁bird	-4661
▁resident	-4662
▁sea	-4663
▁plants	-4664
▁Nor	-4665
▁Muslim	-4666
▁efficient	-4667
▁controll	-4668
▁separate	-4669
ania	-4670
▁button	-4671
▁doctor	-4672
ynam	-4673
icing	-4674
▁arrived	-4675
otten	-4676
▁eth	-4677
▁Start	-4678
▁manage	-4679
▁massive	-4680
▁agree	-4681
GB	-4682
ola	-4683
▁ign	-4684
▁Peter	-4685
top	-4686
▁prepared	-4687
oston	-4688
ideo	-4689
acement	-4690
while	-4691
▁Jul	-4692
▁sand	-4693
icians	-4694
▁sentence	-4695
▁markets	-4696
▁fill	-4697
fast	-4698
▁fuel	-4699
inct	-4700
▁elements	-4701
▁environmental	-4702
▁wine	-4703
▁Thomas	-4704
▁discussion	-4705
IG	-4706
▁useful	-4707
▁forms	-4708
how	-4709
▁Pay	-4710
▁Where	-4711
▁appropriate	-4712
eal	-4713
▁proposed	-4714
▁Its	-4715
▁changing	-4716
hi	-4717
▁technical	-4718
ownt	-4719
▁tree	-4720
▁notes	-4721
usion	-4722
gery	-4723
▁whatever	-4724
obe	-4725
▁identify	-4726
▁upcoming	-4727
ses	-4728
▁policies	-4729
▁OF	-4730
▁shall	-4731
▁artists	-4732
.[	-4733
▁ang	-4734
▁conven	-4735
▁liber	-4736
▁tro	-4737
bour	-4738
ano	-4739
▁cart	-4740
▁vehicles	-4741
▁authorities	-4742
▁numerous	-4743
▁introduced	-4744
secut	-4745
▁Canadian	-4746
▁ride	-4747
▁Fil	-4748
▁committed	-4749
▁Those	-4750
▁Champions	-4751
▁Bob	-4752
▁arm	-4753
▁walking	-4754
▁clearly	-4755
▁payment	-4756
▁push	-4757
▁maint	-4758
▁spect	-4759
▁classes	-4760
▁returned	-4761
▁Women	-4762
▁advance	-4763
▁(@	-4764
oma	-4765
▁smaller	-4766
▁Management	-4767
▁Fox	-4768
▁stars	-4769
NA	-4770
▁colors	-4771
kins	-4772
▁Republicans	-4773
▁Mexico	-4774
▁veter	-4775
▁behavior	-4776
▁www	-4777
▁brows	-4778
▁raise	-4779
ini	-4780
▁Week	-4781
umber	-4782
▁maintain	-4783
▁confirm	-4784
▁methods	-4785
▁familiar	-4786
eed	-4787
ius	-4788
reek	-4789
▁Ok	-4790
cher	-4791
▁Author	-4792
▁debt	-4793
▁Arch	-4794
▁filled	-4795
▁Jesus	-4796
▁brings	-4797
▁Div	-4798
▁Development	-4799
▁Valley	-4800
arge	-4801
▁sustain	-4802
▁determine	-4803
▁generation	-4804
▁Jose	-4805
▁panel	-4806
▁decide	-4807
▁facility	-4808
▁Ill	-4809
▁pun	-4810
▁decor	-4811
▁discover	-4812
iture	-4813
▁impl	-4814
▁mail	-4815
▁PR	-4816
▁stores	-4817
▁balance	-4818
▁dollars	-4819
▁rule	-4820
amin	-4821
▁decisions	-4822
▁relax	-4823
▁micro	-4824
abilities	-4825
▁flex	-4826
alls	-4827
▁Dig	-4828
▁upgr	-4829
paper	-4830
cean	-4831
idering	-4832
▁animal	-4833
oles	-4834
▁handle	-4835
▁African	-4836
▁furn	-4837
▁remove	-4838
▁mental	-4839
▁plays	-4840
▁ideal	-4841
isation	-4842
▁taste	-4843
▁NFL	-4844
▁values	-4845
▁sounds	-4846
ien	-4847
▁Boston	-4848
▁movies	-4849
▁Ver	-4850
▁selling	-4851
▁Instead	-4852
▁sector	-4853
▁Pri	-4854
▁Only	-4855
▁communication	-4856
▁Martin	-4857
FC	-4858
▁NE	-4859
▁selected	-4860
▁willing	-4861
▁visual	-4862
▁beauty	-4863
▁ran	-4864
▁youth	-4865
uated	-4866
▁Jones	-4867
ivered	-4868
▁Australian	-4869
▁transl	-4870
▁ath	-4871
▁Vict	-4872
ictions	-4873
▁facilities	-4874
▁forget	-4875
▁Jon	-4876
▁explain	-4877
▁sch	-4878
asure	-4879
ums	-4880
fortunately	-4881
▁Organ	-4882
coh	-4883
▁Phot	-4884
▁accident	-4885
▁operation	-4886
ript	-4887
▁becomes	-4888
ulated	-4889
▁shel	-4890
udd	-4891
▁seeking	-4892
ait	-4893
een	-4894
▁NY	-4895
▁honest	-4896
▁tough	-4897
ocolate	-4898
▁Journal	-4899
▁criminal	-4900
hab	-4901
▁whom	-4902
▁planned	-4903
▁agreed	-4904
ishes	-4905
▁ID	-4906
▁supposed	-4907
▁Academ	-4908
▁sugar	-4909
▁direction	-4910
▁Justice	-4911
uke	-4912
▁princip	-4913
nel	-4914
▁advanced	-4915
essions	-4916
▁opinion	-4917
▁exercise	-4918
▁teaching	-4919
▁Federal	-4920
▁conflic	-4921
▁Build	-4922
▁Dou	-4923
▁Stand	-4924
lets	-4925
▁Sports	-4926
▁rat	-4927
▁cream	-4928
▁sharing	-4929
▁Charl	-4930
rehens	-4931
real	-4932
▁capacity	-4933
▁Engine	-4934
▁voters	-4935
▁uns	-4936
▁recipe	-4937
▁Steve	-4938
▁metal	-4939
▁leaves	-4940
▁amb	-4941
▁wearing	-4942
▁joint	-4943
▁apart	-4944
uce	-4945
anda	-4946
rier	-4947
▁claimed	-4948
▁entry	-4949
▁flight	-4950
▁practices	-4951
▁Family	-4952
▁spons	-4953
▁anc	-4954
▁Whether	-4955
▁Leg	-4956
▁thoughts	-4957
▁theme	-4958
▁buying	-4959
▁holding	-4960
▁consumers	-4961
▁updated	-4962
reens	-4963
▁friendly	-4964
▁Despite	-4965
▁Arab	-4966
kin	-4967
▁Prem	-4968
▁Ari	-4969
▁nuclear	-4970
▁guests	-4971
word	-4972
▁corporate	-4973
▁manufacturer	-4974
▁apps	-4975
▁male	-4976
▁teacher	-4977
▁millions	-4978
▁labor	-4979
oman	-4980
▁hero	-4981
▁candidates	-4982
▁worry	-4983
▁detect	-4984
UR	-4985
▁dinner	-4986
▁garden	-4987
▁diet	-4988
iences	-4989
▁noted	-4990
▁tells	-4991
▁cells	-4992
▁desk	-4993
▁Ma	-4994
alog	-4995
▁Bit	-4996
▁Note	-4997
▁religious	-4998
ario	-4999
SS	-5000
▁factors	-5001
rovers	-5002
▁Light	-5003
▁sitting	-5004
▁assault	-5005
▁fle	-5006
rees	-5007
▁bask	-5008
▁judge	-5009
ups	-5010
▁songs	-5011
▁gather	-5012
▁Beach	-5013
▁Democrats	-5014
▁measures	-5015
▁conversation	-5016
▁kill	-5017
▁Somet	-5018
▁parking	-5019
aren	-5020
▁topic	-5021
▁optim	-5022
▁eating	-5023
▁articles	-5024
▁exchange	-5025
rooms	-5026
▁stret	-5027
▁AL	-5028
▁Japanese	-5029
▁server	-5030
▁emergency	-5031
isher	-5032
▁slightly	-5033
▁seek	-5034
▁accounts	-5035
lines	-5036
▁negot	-5037
▁lived	-5038
▁appearance	-5039
▁expensive	-5040
▁gall	-5041
▁Old	-5042
▁believed	-5043
iency	-5044
▁Exper	-5045
▁filed	-5046
▁bike	-5047
igation	-5048
▁bringing	-5049
lymp	-5050
▁diagn	-5051
but	-5052
▁serving	-5053
vention	-5054
▁signs	-5055
onto	-5056
aded	-5057
▁multi	-5058
▁identified	-5059
▁Cy	-5060
▁writer	-5061
nergy	-5062
▁Lead	-5063
▁presence	-5064
▁Virginia	-5065
▁inspired	-5066
▁advoc	-5067
rip	-5068
▁MP	-5069
▁Ol	-5070
▁Full	-5071
▁decade	-5072
▁scheduled	-5073
eline	-5074
▁minister	-5075
▁veget	-5076
tered	-5077
▁absolutely	-5078
▁border	-5079
▁delivered	-5080
▁approved	-5081
▁smooth	-5082
▁Next	-5083
ighter	-5084
▁fif	-5085
▁adapt	-5086
▁editor	-5087
ression	-5088
▁AT	-5089
uters	-5090
▁warn	-5091
▁Carolina	-5092
▁shipping	-5093
▁removed	-5094
onent	-5095
▁Network	-5096
▁chemical	-5097
ompl	-5098
▁Haw	-5099
hop	-5100
iser	-5101
▁favour	-5102
▁wire	-5103
ef	-5104
ita	-5105
▁centre	-5106
▁crew	-5107
▁plastic	-5108
▁feels	-5109
▁neighborhood	-5110
▁talks	-5111
▁Ryan	-5112
cell	-5113
▁surprise	-5114
arsh	-5115
ordin	-5116
▁seat	-5117
osen	-5118
rs	-5119
▁ingredients	-5120
▁entertain	-5121
▁teachers	-5122
▁seconds	-5123
▁clim	-5124
▁Paris	-5125
:||	-5126
▁unf	-5127
▁Kn	-5128
▁typically	-5129
▁van	-5130
▁married	-5131
▁incor	-5132
▁explained	-5133
▁busy	-5134
▁fighting	-5135
▁exception	-5136
itionally	-5137
anche	-5138
▁Liber	-5139
tion	-5140
▁loan	-5141
▁Francisco	-5142
▁Michigan	-5143
adium	-5144
▁Prime	-5145
▁readers	-5146
▁bac	-5147
▁locations	-5148
▁supported	-5149
▁coast	-5150
▁combination	-5151
What	-5152
po	-5153
andom	-5154
▁Series	-5155
▁except	-5156
asks	-5157
▁Lee	-5158
ye	-5159
mpt	-5160
gend	-5161
▁university	-5162
▁Olymp	-5163
ferences	-5164
ensions	-5165
itors	-5166
▁mort	-5167
▁CD	-5168
▁cop	-5169
ker	-5170
▁recip	-5171
▁housing	-5172
▁Id	-5173
▁commission	-5174
▁committee	-5175
▁intelligence	-5176
▁Kh	-5177
▁Mur	-5178
▁hun	-5179
west	-5180
ulate	-5181
otic	-5182
▁scientists	-5183
▁Daily	-5184
ingly	-5185
rics	-5186
ournament	-5187
▁sides	-5188
▁tight	-5189
▁listen	-5190
▁spoke	-5191
idden	-5192
▁temperature	-5193
▁flu	-5194
▁alternative	-5195
As	-5196
▁struct	-5197
istration	-5198
▁tele	-5199
oted	-5200
▁rough	-5201
▁tow	-5202
▁accused	-5203
▁Sher	-5204
▁therap	-5205
▁connected	-5206
rastructure	-5207
list	-5208
verse	-5209
▁combined	-5210
▁Ext	-5211
▁units	-5212
uit	-5213
last	-5214
▁square	-5215
▁begins	-5216
▁util	-5217
▁Pac	-5218
They	-5219
▁witness	-5220
▁adults	-5221
▁AD	-5222
▁Advert	-5223
▁library	-5224
▁Way	-5225
unction	-5226
▁debut	-5227
suit	-5228
▁drugs	-5229
▁accompl	-5230
▁Squ	-5231
▁Wild	-5232
▁sequ	-5233
▁compar	-5234
▁Medical	-5235
▁CN	-5236
▁reform	-5237
lywood	-5238
▁sets	-5239
▁waste	-5240
▁flat	-5241
▁Head	-5242
▁Penn	-5243
▁datab	-5244
▁quiet	-5245
rim	-5246
▁influence	-5247
▁leads	-5248
▁twice	-5249
▁awesome	-5250
▁boost	-5251
▁professionals	-5252
▁scale	-5253
▁beer	-5254
tenance	-5255
▁Technology	-5256
▁Human	-5257
▁solar	-5258
odies	-5259
▁trees	-5260
▁dangerous	-5261
▁Lord	-5262
arp	-5263
▁Data	-5264
▁der	-5265
▁https	-5266
▁transform	-5267
▁Three	-5268
▁Gen	-5269
▁beach	-5270
cont	-5271
▁tickets	-5272
▁controvers	-5273
▁medium	-5274
▁Town	-5275
▁updates	-5276
▁Sup	-5277
ev	-5278
▁visitors	-5279
rist	-5280
▁specifically	-5281
▁Di	-5282
athe	-5283
▁Invest	-5284
▁minimum	-5285
▁Middle	-5286
▁legislation	-5287
▁stopped	-5288
▁studio	-5289
ifts	-5290
▁landsc	-5291
▁mentioned	-5292
▁Contin	-5293
▁die	-5294
▁renew	-5295
▁Prov	-5296
LC	-5297
▁sav	-5298
mosp	-5299
▁Ohio	-5300
▁Orig	-5301
▁featured	-5302
▁Set	-5303
▁occup	-5304
kes	-5305
▁fellow	-5306
▁Oper	-5307
burg	-5308
▁worst	-5309
▁du	-5310
▁Award	-5311
▁otherwise	-5312
▁relationships	-5313
azz	-5314
▁politics	-5315
▁revenue	-5316
uana	-5317
▁negative	-5318
▁films	-5319
inations	-5320
▁turns	-5321
▁pal	-5322
agram	-5323
arian	-5324
▁fly	-5325
▁Wal	-5326
OD	-5327
cohol	-5328
LA	-5329
▁Toronto	-5330
▁rooms	-5331
▁properties	-5332
IR	-5333
▁techniques	-5334
▁bon	-5335
▁Scot	-5336
▁Walk	-5337
▁edge	-5338
!”	-5339
▁speaking	-5340
elly	-5341
aser	-5342
eper	-5343
▁broken	-5344
▁worse	-5345
aints	-5346
▁consumer	-5347
▁orders	-5348
comm	-5349
ansas	-5350
▁internal	-5351
▁doubt	-5352
);	-5353
▁Posted	-5354
▁switch	-5355
▁ju	-5356
▁Williams	-5357
▁Bas	-5358
▁Sar	-5359
?"	-5360
▁AC	-5361
andon	-5362
▁campus	-5363
▁react	-5364
▁highlight	-5365
▁Report	-5366
▁butter	-5367
TS	-5368
▁Wr	-5369
acking	-5370
▁mo	-5371
weight	-5372
liam	-5373
▁stated	-5374
▁Society	-5375
▁Conference	-5376
▁Mo	-5377
▁Hillary	-5378
▁Through	-5379
rick	-5380
which	-5381
==	-5382
▁facing	-5383
alian	-5384
▁intended	-5385
▁planet	-5386
▁possibly	-5387
▁approximately	-5388
ternal	-5389
▁picked	-5390
▁Cath	-5391
▁Games	-5392
▁confident	-5393
▁Energy	-5394
▁detailed	-5395
▁rapid	-5396
resp	-5397
▁pregn	-5398
▁tun	-5399
▁Four	-5400
ucks	-5401
▁magazine	-5402
▁figures	-5403
▁Pan	-5404
▁faster	-5405
▁motiv	-5406
▁Date	-5407
▁Mic	-5408
season	-5409
MS	-5410
▁Cat	-5411
▁Andrew	-5412
▁depart	-5413
▁therefore	-5414
▁Men	-5415
▁importance	-5416
▁dogs	-5417
▁Live	-5418
▁freedom	-5419
▁weapons	-5420
sen	-5421
▁lock	-5422
ijuana	-5423
▁tweet	-5424
▁format	-5425
▁considering	-5426
▁scored	-5427
bo	-5428
erg	-5429
▁basket	-5430
ommod	-5431
liament	-5432
▁Second	-5433
gas	-5434
ris	-5435
iger	-5436
razy	-5437
▁Expl	-5438
▁murder	-5439
▁Columb	-5440
acked	-5441
▁affected	-5442
▁follows	-5443
ship	-5444
with	-5445
ias	-5446
▁truck	-5447
MA	-5448
▁steel	-5449
▁discount	-5450
▁confidence	-5451
▁Inf	-5452
▁telling	-5453
▁greatest	-5454
▁enjoyed	-5455
▁label	-5456
▁relevant	-5457
▁swim	-5458
▁contest	-5459
▁pump	-5460
▁Lin	-5461
▁Korea	-5462
▁closer	-5463
▁standing	-5464
Don	-5465
▁tests	-5466
▁designs	-5467
▁agencies	-5468
▁drivers	-5469
▁AND	-5470
▁Georg	-5471
▁Prote	-5472
▁concerned	-5473
▁storm	-5474
▁salt	-5475
bu	-5476
ava	-5477
arrant	-5478
▁island	-5479
▁victims	-5480
iration	-5481
▁Max	-5482
▁bigger	-5483
▁command	-5484
▁paying	-5485
▁originally	-5486
isement	-5487
person	-5488
▁Gall	-5489
▁pm	-5490
▁winner	-5491
▁Video	-5492
▁indic	-5493
▁wealth	-5494
▁Gar	-5495
aped	-5496
▁profile	-5497
▁Global	-5498
under	-5499
▁recorded	-5500
PR	-5501
▁cheap	-5502
▁commitment	-5503
pet	-5504
lights	-5505
▁Aud	-5506
▁Kim	-5507
▁distance	-5508
▁fee	-5509
▁Jackson	-5510
▁injuries	-5511
hand	-5512
▁thus	-5513
owntown	-5514
ansion	-5515
DF	-5516
▁conducted	-5517
▁gay	-5518
▁Aff	-5519
▁Britain	-5520
▁bra	-5521
▁attorney	-5522
▁websites	-5523
▁Bush	-5524
▁Administr	-5525
▁Spring	-5526
▁CA	-5527
▁surgery	-5528
equ	-5529
IF	-5530
related	-5531
ena	-5532
ection	-5533
▁Download	-5534
▁Ire	-5535
▁san	-5536
ERS	-5537
▁promote	-5538
eration	-5539
▁nor	-5540
ih	-5541
▁assistance	-5542
▁carried	-5543
▁Syria	-5544
lyn	-5545
orry	-5546
▁improved	-5547
▁streets	-5548
▁Support	-5549
▁responsibility	-5550
▁Lim	-5551
▁Centre	-5552
▁worldwide	-5553
▁Rev	-5554
▁dance	-5555
▁brown	-5556
▁)	-5557
TA	-5558
▁pu	-5559
▁Army	-5560
rical	-5561
▁Person	-5562
spe	-5563
▁Tit	-5564
▁grab	-5565
▁illegal	-5566
▁Secretary	-5567
kr	-5568
▁alleg	-5569
▁susp	-5570
centr	-5571
uts	-5572
▁phil	-5573
▁CH	-5574
▁hasn	-5575
▁cultural	-5576
ployment	-5577
▁icon	-5578
ashed	-5579
▁extensive	-5580
▁Boy	-5581
▁buildings	-5582
▁abuse	-5583
▁fabric	-5584
▁employee	-5585
dr	-5586
icit	-5587
▁burn	-5588
▁Young	-5589
▁Yet	-5590
▁remote	-5591
▁dropped	-5592
▁agent	-5593
uration	-5594
gment	-5595
▁©	-5596
▁guest	-5597
▁sympt	-5598
▁Though	-5599
▁Pak	-5600
rome	-5601
▁HD	-5602
gage	-5603
umin	-5604
▁nav	-5605
▁Hospital	-5606
▁photograph	-5607
rehensive	-5608
uable	-5609
▁]	-5610
▁fold	-5611
▁pil	-5612
▁repair	-5613
▁ris	-5614
▁defend	-5615
▁audio	-5616
▁Contact	-5617
▁Keep	-5618
iat	-5619
▁Span	-5620
▁Sky	-5621
▁privacy	-5622
OC	-5623
▁colle	-5624
inet	-5625
hus	-5626
▁supporting	-5627
water	-5628
osis	-5629
rency	-5630
▁wel	-5631
▁unless	-5632
tw	-5633
▁sister	-5634
▁missed	-5635
▁emp	-5636
▁carbon	-5637
▁anywhere	-5638
▁atmosp	-5639
▁Daniel	-5640
▁believes	-5641
▁tack	-5642
▁registered	-5643
▁Key	-5644
!)	-5645
ocket	-5646
▁disappoint	-5647
dden	-5648
astern	-5649
▁Publ	-5650
▁essay	-5651
itable	-5652
▁illustr	-5653
▁Cam	-5654
▁Hen	-5655
▁installed	-5656
ulous	-5657
▁Colorado	-5658
▁Bo	-5659
agues	-5660
ician	-5661
▁context	-5662
▁belong	-5663
▁unlike	-5664
▁taxes	-5665
▁bond	-5666
▁technologies	-5667
▁cro	-5668
ampion	-5669
ache	-5670
▁ON	-5671
▁Jun	-5672
appy	-5673
▁ven	-5674
And	-5675
inch	-5676
▁Log	-5677
▁dram	-5678
mond	-5679
TC	-5680
▁trend	-5681
▁menu	-5682
▁battery	-5683
▁Test	-5684
▁scientific	-5685
onym	-5686
▁Fund	-5687
▁Cook	-5688
▁milk	-5689
▁totally	-5690
enced	-5691
▁meat	-5692
▁determined	-5693
▁instr	-5694
Tube	-5695
▁symb	-5696
▁champions	-5697
fol	-5698
▁Ken	-5699
.’	-5700
TV	-5701
▁odd	-5702
▁ring	-5703
anned	-5704
▁ment	-5705
▁circum	-5706
olars	-5707
▁Ra	-5708
▁native	-5709
▁prompt	-5710
▁Victor	-5711
▁IP	-5712
▁grew	-5713
▁domestic	-5714
ello	-5715
▁Die	-5716
▁Adv	-5717
▁forg	-5718
▁NOT	-5719
▁fees	-5720
▁Supreme	-5721
opp	-5722
▁virtual	-5723
▁migr	-5724
ato	-5725
long	-5726
ework	-5727
▁guard	-5728
▁Commun	-5729
▁aid	-5730
prise	-5731
▁ongoing	-5732
▁Bern	-5733
ems	-5734
▁plug	-5735
▁roof	-5736
▁History	-5737
makers	-5738
▁academic	-5739
▁Museum	-5740
ially	-5741
▁Fair	-5742
▁professor	-5743
▁rub	-5744
▁chart	-5745
▁suggested	-5746
▁ourselves	-5747
▁performed	-5748
▁lux	-5749
▁remaining	-5750
oking	-5751
▁tom	-5752
▁belief	-5753
▁infrastructure	-5754
▁prepare	-5755
▁Gra	-5756
▁Tour	-5757
▁valid	-5758
▁Copy	-5759
▁row	-5760
▁Story	-5761
▁developers	-5762
▁earned	-5763
▁applied	-5764
▁Mid	-5765
▁neck	-5766
▁lunch	-5767
ervation	-5768
▁usual	-5769
▁processes	-5770
▁accommod	-5771
▁mal	-5772
▁Space	-5773
▁entirely	-5774
▁Econom	-5775
Sh	-5776
hew	-5777
asts	-5778
▁industrial	-5779
▁Indust	-5780
ossible	-5781
▁tables	-5782
▁mouth	-5783
▁sudden	-5784
▁ec	-5785
enger	-5786
▁advertising	-5787
▁protest	-5788
uous	-5789
▁featuring	-5790
▁pulled	-5791
▁yes	-5792
▁chat	-5793
sts	-5794
▁script	-5795
▁Pack	-5796
acle	-5797
▁identity	-5798
oration	-5799
▁thick	-5800
▁announcement	-5801
▁athlet	-5802
▁obt	-5803
▁contem	-5804
▁interests	-5805
▁maximum	-5806
▁dynam	-5807
▁replace	-5808
phas	-5809
▁competitive	-5810
isters	-5811
▁Festival	-5812
uations	-5813
一个	-5814
▁chain	-5815
▁Ell	-5816
▁univers	-5817
▁Sn	-5818
▁Ron	-5819
ht	-5820
▁exclusive	-5821
▁stands	-5822
▁occasion	-5823
▁sky	-5824
▁honor	-5825
▁assum	-5826
rid	-5827
▁Main	-5828
can	-5829
▁boys	-5830
▁creation	-5831
▁surrounding	-5832
▁Hand	-5833
▁grown	-5834
▁losing	-5835
gs	-5836
▁messages	-5837
▁hate	-5838
print	-5839
▁coal	-5840
Cl	-5841
▁injured	-5842
▁Braz	-5843
ifications	-5844
ora	-5845
▁owned	-5846
col	-5847
▁Academy	-5848
▁Plus	-5849
▁register	-5850
▁edition	-5851
▁gro	-5852
▁fantastic	-5853
▁investors	-5854
anged	-5855
sembly	-5856
▁Word	-5857
▁Cru	-5858
▁causes	-5859
▁justice	-5860
▁liqu	-5861
abled	-5862
▁encourage	-5863
▁mine	-5864
▁Ireland	-5865
ala	-5866
Americ	-5867
ulations	-5868
▁perman	-5869
▁frame	-5870
▁Put	-5871
▁Creat	-5872
▁Italian	-5873
rad	-5874
▁concentr	-5875
awn	-5876
oors	-5877
▁birthday	-5878
atre	-5879
▁rid	-5880
▁Using	-5881
▁trouble	-5882
▁happening	-5883
▁cutting	-5884
▁Hou	-5885
▁Asia	-5886
▁severe	-5887
▁Night	-5888
▁Did	-5889
alse	-5890
▁apartment	-5891
▁Fed	-5892
anger	-5893
▁Land	-5894
▁mir	-5895
▁mode	-5896
▁purchased	-5897
▁DC	-5898
▁trib	-5899
▁MS	-5900
ani	-5901
rawn	-5902
▁theory	-5903
▁tech	-5904
▁bound	-5905
apes	-5906
▁broke	-5907
▁volume	-5908
▁incredible	-5909
▁banks	-5910
road	-5911
▁Win	-5912
▁hardware	-5913
▁teach	-5914
edia	-5915
▁Inte	-5916
▁instit	-5917
▁outdoor	-5918
▁Right	-5919
▁YOU	-5920
▁ticket	-5921
▁involve	-5922
▁YouTube	-5923
gent	-5924
▁Pakistan	-5925
▁relatively	-5926
pass	-5927
▁council	-5928
▁Ut	-5929
▁Ariz	-5930
▁End	-5931
▁enforcement	-5932
▁resolution	-5933
▁blow	-5934
▁fro	-5935
▁imagine	-5936
▁category	-5937
▁ends	-5938
▁participate	-5939
▁ped	-5940
▁feedback	-5941
ench	-5942
▁fields	-5943
▁Maybe	-5944
▁county	-5945
▁cleaning	-5946
▁deals	-5947
▁estimated	-5948
▁quant	-5949
▁apparently	-5950
▁increasingly	-5951
cious	-5952
Ph	-5953
▁Far	-5954
▁innovative	-5955
▁element	-5956
▁sad	-5957
▁participants	-5958
▁shares	-5959
▁rail	-5960
born	-5961
▁entered	-5962
▁cheese	-5963
▁Girl	-5964
▁village	-5965
▁moments	-5966
inem	-5967
▁entertainment	-5968
▁Connect	-5969
hat	-5970
▁complic	-5971
cover	-5972
▁talent	-5973
▁Er	-5974
▁Hotel	-5975
foot	-5976
▁Tem	-5977
▁boot	-5978
▁aspects	-5979
▁courses	-5980
▁dism	-5981
▁restaurants	-5982
▁Arts	-5983
irty	-5984
▁Master	-5985
▁reference	-5986
estyle	-5987
▁terr	-5988
▁ordered	-5989
▁components	-5990
▁Access	-5991
▁treated	-5992
▁receiving	-5993
▁Coast	-5994
▁Welcome	-5995
▁colour	-5996
▁dial	-5997
▁properly	-5998
▁noticed	-5999
▁nearby	-6000
▁topics	-6001
▁proposal	-6002
▁Price	-6003
raud	-6004
▁chocolate	-6005
och	-6006
▁Hor	-6007
▁Ep	-6008
▁visiting	-6009
▁hopes	-6010
▁giant	-6011
▁license	-6012
▁turning	-6013
▁wal	-6014
▁bowl	-6015
▁Avenue	-6016
▁maintenance	-6017
▁Little	-6018
▁vast	-6019
orough	-6020
My	-6021
▁marijuana	-6022
▁realize	-6023
▁photograp	-6024
▁Van	-6025
▁doors	-6026
▁spokesman	-6027
▁input	-6028
▁column	-6029
▁joy	-6030
▁engineering	-6031
ghan	-6032
fficient	-6033
osit	-6034
▁seasons	-6035
▁Italy	-6036
uster	-6037
▁suffe	-6038
▁PS	-6039
hors	-6040
▁trading	-6041
otes	-6042
▁announce	-6043
▁enhance	-6044
▁resol	-6045
New	-6046
▁Dom	-6047
▁returns	-6048
▁Rod	-6049
▁fruit	-6050
▁Mean	-6051
▁faces	-6052
▁Carl	-6053
▁consequ	-6054
cue	-6055
▁NAS	-6056
zy	-6057
▁broadcast	-6058
▁copyright	-6059
luding	-6060
▁ast	-6061
▁failure	-6062
▁Jersey	-6063
▁destroy	-6064
▁holds	-6065
▁pod	-6066
▁route	-6067
▁obvious	-6068
▁lit	-6069
▁lights	-6070
erate	-6071
▁celebrate	-6072
▁fort	-6073
▁tea	-6074
▁Cast	-6075
▁Cost	-6076
▁Does	-6077
▁accepted	-6078
▁household	-6079
▁satisf	-6080
▁yards	-6081
▁answers	-6082
▁Hom	-6083
▁weak	-6084
prene	-6085
▁Brazil	-6086
▁AS	-6087
▁Tay	-6088
redit	-6089
▁depending	-6090
▁rot	-6091
▁Children	-6092
▁Disney	-6093
▁gear	-6094
▁Create	-6095
▁Share	-6096
▁widely	-6097
▁SP	-6098
▁voc	-6099
cles	-6100
▁desire	-6101
lock	-6102
merce	-6103
▁Name	-6104
▁mel	-6105
No	-6106
▁calcul	-6107
yers	-6108
But	-6109
▁Ukr	-6110
▁Search	-6111
▁Charles	-6112
▁database	-6113
▁appeal	-6114
ua	-6115
vell	-6116
▁Turn	-6117
▁Library	-6118
hetic	-6119
▁enem	-6120
UN	-6121
▁Ca	-6122
reprene	-6123
▁NH	-6124
▁cuts	-6125
▁reporting	-6126
▁alcohol	-6127
▁impressive	-6128
anges	-6129
!"	-6130
▁Digital	-6131
▁regional	-6132
▁symptoms	-6133
gypt	-6134
??	-6135
▁choices	-6136
▁Ms	-6137
▁recommended	-6138
▁hoping	-6139
▁DV	-6140
▁Manager	-6141
▁chicken	-6142
▁predict	-6143
▁educational	-6144
▁Hard	-6145
▁processing	-6146
▁AR	-6147
vy	-6148
▁recovery	-6149
▁humans	-6150
CE	-6151
▁GM	-6152
etic	-6153
▁instance	-6154
▁rom	-6155
▁Disc	-6156
▁Force	-6157
▁Saf	-6158
▁Corpor	-6159
▁herself	-6160
▁Islamic	-6161
▁sam	-6162
▁Rights	-6163
▁degrees	-6164
For	-6165
▁helpful	-6166
▁Soft	-6167
▁Seattle	-6168
▁positions	-6169
▁construct	-6170
.'	-6171
▁spr	-6172
▁supporters	-6173
iami	-6174
▁none	-6175
host	-6176
▁effectively	-6177
▁frustr	-6178
▁folks	-6179
▁Nick	-6180
▁enable	-6181
▁enthus	-6182
▁chosen	-6183
▁soul	-6184
▁strike	-6185
▁Current	-6186
ORE	-6187
▁surf	-6188
▁cerem	-6189
stone	-6190
▁Santa	-6191
▁comprehensive	-6192
▁channel	-6193
That	-6194
▁perspective	-6195
iated	-6196
eries	-6197
▁Wi	-6198
▁flood	-6199
▁Eric	-6200
▁Georgia	-6201
iversary	-6202
▁covers	-6203
ibilities	-6204
idelines	-6205
▁retire	-6206
ican	-6207
▁Hollywood	-6208
icide	-6209
▁installation	-6210
osite	-6211
▁significantly	-6212
▁Spanish	-6213
▁riv	-6214
▁WH	-6215
▁inches	-6216
TH	-6217
%,	-6218
erves	-6219
▁Houston	-6220
dro	-6221
▁Still	-6222
▁surprising	-6223
do	-6224
▁linked	-6225
hent	-6226
▁tail	-6227
▁brands	-6228
rible	-6229
▁Kevin	-6230
▁random	-6231
ubs	-6232
▁manufacturing	-6233
▁suggests	-6234
cknow	-6235
▁repeated	-6236
▁bomb	-6237
▁provider	-6238
▁Join	-6239
▁examples	-6240
▁regularly	-6241
gor	-6242
▁tiny	-6243
stream	-6244
ulty	-6245
▁boat	-6246
ATE	-6247
▁error	-6248
osoph	-6249
▁arms	-6250
▁emphas	-6251
mes	-6252
▁conflict	-6253
erts	-6254
▁Quest	-6255
luded	-6256
▁newspaper	-6257
▁tasks	-6258
▁config	-6259
ati	-6260
▁reduced	-6261
▁reportedly	-6262
rance	-6263
orders	-6264
law	-6265
▁pure	-6266
▁dish	-6267
urning	-6268
▁shock	-6269
run	-6270
▁crazy	-6271
▁goods	-6272
▁Stan	-6273
uality	-6274
▁Arizona	-6275
▁Come	-6276
▁Friend	-6277
▁tomorrow	-6278
▁opposition	-6279
▁syn	-6280
▁execut	-6281
▁supports	-6282
▁accurate	-6283
▁partnership	-6284
▁incorpor	-6285
▁reput	-6286
ella	-6287
▁strategies	-6288
oral	-6289
▁payments	-6290
▁SH	-6291
▁Jewish	-6292
osc	-6293
▁Meet	-6294
away	-6295
adel	-6296
▁franch	-6297
▁musical	-6298
▁Ford	-6299
▁Rest	-6300
▁largely	-6301
Python	-6302
!!!	-6303
▁factor	-6304
▁Egypt	-6305
▁electronic	-6306
weet	-6307
▁Pass	-6308
▁vul	-6309
▁meetings	-6310
▁Southern	-6311
▁attended	-6312
▁keeps	-6313
▁unable	-6314
▁passing	-6315
▁Harr	-6316
LS	-6317
▁BBC	-6318
▁Kent	-6319
fection	-6320
▁Israeli	-6321
▁automatically	-6322
When	-6323
▁Bal	-6324
▁historic	-6325
▁distribution	-6326
▁Guard	-6327
▁jail	-6328
ilty	-6329
▁Luc	-6330
VER	-6331
▁Palest	-6332
▁perfectly	-6333
asters	-6334
pected	-6335
▁tournament	-6336
▁matters	-6337
ulf	-6338
▁manner	-6339
▁corn	-6340
▁Learn	-6341
ikes	-6342
▁windows	-6343
▁Ult	-6344
▁hurt	-6345
▁delicious	-6346
itutional	-6347
berry	-6348
▁discl	-6349
illy	-6350
▁emotional	-6351
▁monthly	-6352
▁suffered	-6353
ogue	-6354
▁elig	-6355
pret	-6356
▁seriously	-6357
▁Hun	-6358
▁Equ	-6359
▁Chair	-6360
never	-6361
▁Foot	-6362
▁pitch	-6363
▁stretch	-6364
▁west	-6365
flow	-6366
▁delight	-6367
▁houses	-6368
▁purposes	-6369
EE	-6370
▁cooking	-6371
▁Dar	-6372
oga	-6373
▁Following	-6374
▁Control	-6375
▁trig	-6376
▁networks	-6377
▁delay	-6378
▁regulations	-6379
▁tested	-6380
▁mixed	-6381
▁shots	-6382
▁affordable	-6383
▁thread	-6384
▁tall	-6385
▁transm	-6386
cling	-6387
arters	-6388
▁talked	-6389
▁Kenn	-6390
▁gender	-6391
▁atmosphere	-6392
▁output	-6393
▁functions	-6394
▁equal	-6395
▁historical	-6396
DS	-6397
▁iron	-6398
ilit	-6399
athan	-6400
▁Pot	-6401
▁anx	-6402
hem	-6403
▁shoes	-6404
▁Sanders	-6405
▁discussed	-6406
whel	-6407
otal	-6408
▁furniture	-6409
iner	-6410
▁occurred	-6411
oster	-6412
▁Miami	-6413
xy	-6414
▁practical	-6415
nam	-6416
▁Ram	-6417
▁Cross	-6418
utch	-6419
▁Which	-6420
▁Brad	-6421
▁Royal	-6422
▁simpl	-6423
▁likes	-6424
▁describe	-6425
▁Lt	-6426
▁surprised	-6427
▁sick	-6428
▁motion	-6429
axy	-6430
▁info	-6431
▁symbol	-6432
▁contrast	-6433
▁Mult	-6434
▁foods	-6435
allas	-6436
▁challenging	-6437
ulture	-6438
▁premium	-6439
▁meal	-6440
II	-6441
▁acknow	-6442
REE	-6443
▁vary	-6444
▁assets	-6445
arrow	-6446
▁warrant	-6447
▁Kar	-6448
▁Inn	-6449
▁airport	-6450
▁surve	-6451
▁healthcare	-6452
▁kinds	-6453
oil	-6454
new	-6455
resents	-6456
Is	-6457
▁Zeal	-6458
▁voted	-6459
stein	-6460
▁height	-6461
Pro	-6462
iations	-6463
▁tonight	-6464
PD	-6465
▁cable	-6466
▁providers	-6467
▁extended	-6468
▁patterns	-6469
▁lovely	-6470
▁wid	-6471
▁Know	-6472
Tr	-6473
▁OS	-6474
▁possibility	-6475
▁Afghan	-6476
▁transition	-6477
▁killing	-6478
emic	-6479
▁ancient	-6480
▁institutions	-6481
▁hits	-6482
▁dates	-6483
ington	-6484
profit	-6485
▁Point	-6486
front	-6487
ureau	-6488
▁officially	-6489
▁wheel	-6490
star	-6491
▁Environment	-6492
▁grade	-6493
▁decre	-6494
inder	-6495
▁Circ	-6496
ador	-6497
▁Bitcoin	-6498
icial	-6499
▁ages	-6500
class	-6501
▁cycle	-6502
▁Place	-6503
▁bread	-6504
▁Professor	-6505
▁valuable	-6506
▁Ash	-6507
▁fired	-6508
tle	-6509
▁circumst	-6510
▁resource	-6511
▁offensive	-6512
sm	-6513
▁Jr	-6514
▁Store	-6515
▁facts	-6516
iors	-6517
▁routine	-6518
▁alongside	-6519
lig	-6520
▁Bi	-6521
▁votes	-6522
▁Executive	-6523
▁mand	-6524
▁capable	-6525
▁tag	-6526
▁lawyer	-6527
▁Pacific	-6528
▁typical	-6529
▁Box	-6530
▁browser	-6531
▁bodies	-6532
rum	-6533
▁description	-6534
▁Agency	-6535
▁bat	-6536
iana	-6537
▁hall	-6538
▁walked	-6539
▁LA	-6540
▁heav	-6541
▁prime	-6542
▁explains	-6543
etime	-6544
▁hat	-6545
▁rum	-6546
intend	-6547
▁adds	-6548
▁impossible	-6549
izz	-6550
essed	-6551
▁younger	-6552
oty	-6553
▁funny	-6554
▁Stephen	-6555
ules	-6556
▁anticip	-6557
▁Ce	-6558
▁newly	-6559
va	-6560
▁Mat	-6561
▁agents	-6562
▁kne	-6563
▁east	-6564
iamond	-6565
obby	-6566
▁Brian	-6567
adow	-6568
▁mini	-6569
▁infect	-6570
▁Zealand	-6571
eller	-6572
▁Swed	-6573
▁laugh	-6574
▁fixed	-6575
▁mountain	-6576
▁Images	-6577
▁presentation	-6578
▁Unfortunately	-6579
▁breakfast	-6580
▁Ro	-6581
iability	-6582
▁era	-6583
▁Ray	-6584
▁represents	-6585
▁Sea	-6586
▁Having	-6587
acr	-6588
GE	-6589
▁Local	-6590
boy	-6591
▁conver	-6592
▁employment	-6593
▁Tenn	-6594
▁democr	-6595
▁poly	-6596
▁af	-6597
▁machines	-6598
lo	-6599
▁Sat	-6600
▁Help	-6601
▁Email	-6602
▁territ	-6603
▁versions	-6604
iveness	-6605
AA	-6606
▁Lo	-6607
▁affili	-6608
▁Sometimes	-6609
rete	-6610
ouch	-6611
▁adventure	-6612
▁boss	-6613
▁Code	-6614
▁reject	-6615
▁mut	-6616
▁walls	-6617
ether	-6618
made	-6619
▁plate	-6620
elled	-6621
▁sample	-6622
▁successfully	-6623
Con	-6624
▁Rose	-6625
▁zone	-6626
writ	-6627
▁remark	-6628
CS	-6629
iki	-6630
oken	-6631
▁vice	-6632
▁rising	-6633
▁sauce	-6634
▁Low	-6635
▁aggress	-6636
▁signing	-6637
▁closely	-6638
▁horse	-6639
▁jun	-6640
▁aircraft	-6641
▁FBI	-6642
▁reliable	-6643
▁knowing	-6644
▁frequently	-6645
▁bare	-6646
▁fasc	-6647
▁shift	-6648
▁Division	-6649
▁Hope	-6650
▁Summer	-6651
▁clothes	-6652
▁protected	-6653
aze	-6654
▁yellow	-6655
uting	-6656
da	-6657
▁FOR	-6658
▁Northern	-6659
Le	-6660
▁tracks	-6661
uter	-6662
▁basketball	-6663
htt	-6664
▁festival	-6665
▁id	-6666
▁tut	-6667
▁moves	-6668
▁Catholic	-6669
▁titles	-6670
▁awareness	-6671
▁instructions	-6672
AY	-6673
▁objects	-6674
▁watched	-6675
sex	-6676
▁expertise	-6677
▁visited	-6678
▁Field	-6679
▁division	-6680
▁Adam	-6681
▁extract	-6682
▁advis	-6683
▁promise	-6684
ca	-6685
endar	-6686
ockey	-6687
▁graduate	-6688
▁cooper	-6689
itage	-6690
orable	-6691
▁invited	-6692
▁doctors	-6693
▁expansion	-6694
▁Ap	-6695
▁vital	-6696
▁directed	-6697
▁unus	-6698
eding	-6699
▁spark	-6700
▁formed	-6701
▁expectations	-6702
▁Page	-6703
▁Son	-6704
▁expressed	-6705
▁immediate	-6706
▁Students	-6707
▁heads	-6708
▁approval	-6709
▁flowers	-6710
phy	-6711
▁conservative	-6712
▁Dallas	-6713
▁constantly	-6714
wing	-6715
▁golf	-6716
▁phones	-6717
▁foundation	-6718
▁Mu	-6719
▁jew	-6720
▁Barack	-6721
▁Bon	-6722
▁prove	-6723
▁Jenn	-6724
▁silver	-6725
▁breaking	-6726
lete	-6727
▁downtown	-6728
▁depth	-6729
▁revolution	-6730
▁founded	-6731
▁Fun	-6732
▁organized	-6733
owned	-6734
▁false	-6735
▁union	-6736
▁efficiency	-6737
ologist	-6738
▁defensive	-6739
uction	-6740
▁ultimately	-6741
▁Instagram	-6742
▁guitar	-6743
▁taught	-6744
▁Davis	-6745
▁Assist	-6746
▁chapter	-6747
anchester	-6748
▁Radio	-6749
▁batt	-6750
▁rose	-6751
respond	-6752
▁diss	-6753
▁trick	-6754
sters	-6755
▁fifth	-6756
▁Taylor	-6757
▁pounds	-6758
roit	-6759
▁loves	-6760
▁Advertisement	-6761
km	-6762
ras	-6763
yard	-6764
▁actor	-6765
▁distinct	-6766
▁mere	-6767
▁guilty	-6768
▁invent	-6769
▁painting	-6770
▁Farm	-6771
▁Never	-6772
▁diverse	-6773
▁urban	-6774
▁Bra	-6775
▁sole	-6776
▁Rub	-6777
PM	-6778
amsung	-6779
▁GOP	-6780
▁Minnes	-6781
▁appreciate	-6782
▁Ha	-6783
▁elections	-6784
’.	-6785
▁pleased	-6786
▁Stat	-6787
▁founder	-6788
▁emails	-6789
▁Dog	-6790
▁hook	-6791
▁everyday	-6792
bi	-6793
anes	-6794
▁excess	-6795
▁warning	-6796
▁potentially	-6797
oosing	-6798
▁weekly	-6799
▁finds	-6800
▁pic	-6801
▁Bear	-6802
▁Broad	-6803
▁Steven	-6804
▁recognized	-6805
▁organic	-6806
▁Oak	-6807
▁drinking	-6808
▁Tri	-6809
olit	-6810
▁authority	-6811
▁caption	-6812
bar	-6813
▁fraud	-6814
▁refuge	-6815
▁Copyright	-6816
nda	-6817
inent	-6818
▁Attorney	-6819
▁realized	-6820
▁AI	-6821
▁differences	-6822
obs	-6823
▁fairly	-6824
▁pra	-6825
rich	-6826
▁cake	-6827
▁upper	-6828
▁vulner	-6829
▁Below	-6830
▁Labor	-6831
▁arts	-6832
▁serves	-6833
ded	-6834
▁Hon	-6835
▁allegedly	-6836
▁spaces	-6837
▁overwhel	-6838
▁admitted	-6839
▁Room	-6840
On	-6841
inos	-6842
▁Sus	-6843
▁chose	-6844
▁river	-6845
▁SU	-6846
▁Ball	-6847
actions	-6848
▁bid	-6849
▁Priv	-6850
▁registration	-6851
▁recording	-6852
▁settings	-6853
cons	-6854
pot	-6855
▁hur	-6856
▁Additionally	-6857
▁strange	-6858
▁sessions	-6859
▁matches	-6860
aza	-6861
▁phr	-6862
▁forum	-6863
▁reward	-6864
inson	-6865
▁faced	-6866
▁gaming	-6867
▁interior	-6868
▁Manchester	-6869
LY	-6870
▁jack	-6871
pir	-6872
▁increases	-6873
▁nurs	-6874
rell	-6875
▁innovation	-6876
ials	-6877
▁causing	-6878
▁designer	-6879
▁replacement	-6880
regon	-6881
ba	-6882
▁king	-6883
▁Irish	-6884
▁landscape	-6885
▁NEW	-6886
▁Mach	-6887
bal	-6888
Ar	-6889
▁sight	-6890
RI	-6891
▁Vill	-6892
▁domin	-6893
▁hell	-6894
▁Silver	-6895
▁Minnesota	-6896
▁rein	-6897
▁struck	-6898
oup	-6899
▁Administration	-6900
▁Credit	-6901
pan	-6902
▁Oil	-6903
▁communications	-6904
▁Writ	-6905
▁logo	-6906
▁crash	-6907
▁capture	-6908
abet	-6909
▁thin	-6910
▁programming	-6911
quir	-6912
▁proceed	-6913
otton	-6914
lusion	-6915
▁Bru	-6916
▁pray	-6917
▁Comple	-6918
▁·	-6919
▁Lind	-6920
▁generate	-6921
adelph	-6922
▁assistant	-6923
▁accomp	-6924
▁immigration	-6925
ographic	-6926
▁evol	-6927
▁Wars	-6928
▁guarantee	-6929
iece	-6930
idays	-6931
ounded	-6932
▁risks	-6933
▁medicine	-6934
▁weren	-6935
▁err	-6936
▁Bul	-6937
▁Jac	-6938
ighters	-6939
▁argument	-6940
nic	-6941
▁elected	-6942
▁vacc	-6943
▁collaboration	-6944
▁bear	-6945
▁Tony	-6946
▁searching	-6947
inois	-6948
▁narr	-6949
car	-6950
▁Dun	-6951
▁Josh	-6952
▁Trust	-6953
▁Type	-6954
▁joining	-6955
▁initially	-6956
ura	-6957
▁Ref	-6958
▁Coll	-6959
▁drawing	-6960
▁indeed	-6961
▁Dev	-6962
▁Atlanta	-6963
▁letters	-6964
▁rating	-6965
CD	-6966
▁explos	-6967
▁findings	-6968
▁empt	-6969
▁Es	-6970
ancer	-6971
▁colleagues	-6972
▁Pop	-6973
adelphia	-6974
▁therapy	-6975
▁exec	-6976
▁flag	-6977
force	-6978
▁ruling	-6979
▁Nation	-6980
▁dim	-6981
▁fulf	-6982
case	-6983
▁licens	-6984
▁basically	-6985
▁Recent	-6986
▁baseball	-6987
▁Scotland	-6988
iano	-6989
▁Diego	-6990
▁newslet	-6991
awa	-6992
▁champion	-6993
▁profit	-6994
ruption	-6995
▁obtain	-6996
▁suitable	-6997
▁entreprene	-6998
▁wins	-6999
▁Las	-7000
▁intent	-7001
▁Samsung	-7002
▁pip	-7003
▁involving	-7004
▁transportation	-7005
▁sizes	-7006
otted	-7007
▁referred	-7008
▁collected	-7009
▁Tal	-7010
▁sending	-7011
anna	-7012
▁Think	-7013
▁suffering	-7014
▁obviously	-7015
▁plane	-7016
iro	-7017
▁Camer	-7018
▁Spain	-7019
▁elimin	-7020
▁wra	-7021
▁Mir	-7022
▁Miller	-7023
▁religion	-7024
▁ma	-7025
▁informed	-7026
cers	-7027
gorith	-7028
▁Further	-7029
▁developer	-7030
▁experiment	-7031
eah	-7032
level	-7033
▁wake	-7034
▁split	-7035
▁legend	-7036
▁carrying	-7037
▁mainly	-7038
计算	-7039
ta	-7040
alo	-7041
▁Tech	-7042
▁Anth	-7043
▁soph	-7044
onna	-7045
urb	-7046
umes	-7047
▁Among	-7048
▁hang	-7049
sue	-7050
neys	-7051
aska	-7052
An	-7053
▁NBA	-7054
▁percentage	-7055
ran	-7056
▁trends	-7057
▁Detroit	-7058
ixture	-7059
▁Heart	-7060
▁teeth	-7061
aug	-7062
anny	-7063
▁flash	-7064
▁ads	-7065
▁bench	-7066
▁forth	-7067
▁lapt	-7068
▁substant	-7069
▁Conf	-7070
owa	-7071
▁suc	-7072
▁Blog	-7073
uls	-7074
▁carefully	-7075
dy	-7076
bel	-7077
▁prepar	-7078
▁dealing	-7079
▁Joseph	-7080
▁Meanwhile	-7081
▁Financial	-7082
▁scholars	-7083
esy	-7084
▁Cas	-7085
▁operate	-7086
mates	-7087
▁authors	-7088
page	-7089
▁Link	-7090
▁trained	-7091
▁Kat	-7092
ingu	-7093
▁eggs	-7094
▁Fall	-7095
▁SC	-7096
▁submit	-7097
▁Asian	-7098
▁Area	-7099
▁Need	-7100
▁reporters	-7101
▁Run	-7102
▁Ly	-7103
▁appointment	-7104
▁rear	-7105
aturally	-7106
▁struggle	-7107
epend	-7108
▁spin	-7109
▁responded	-7110
Al	-7111
▁obtained	-7112
▁Rog	-7113
▁Jason	-7114
▁bedroom	-7115
▁Oregon	-7116
▁reaction	-7117
inity	-7118
▁finance	-7119
▁stone	-7120
MP	-7121
ml	-7122
▁Jord	-7123
EA	-7124
py	-7125
ailability	-7126
▁Illinois	-7127
▁ok	-7128
burgh	-7129
▁franchise	-7130
▁Small	-7131
mar	-7132
alty	-7133
▁Judge	-7134
you	-7135
▁crucial	-7136
▁seats	-7137
▁bathroom	-7138
▁supplies	-7139
▁pit	-7140
▁Dead	-7141
▁tank	-7142
oval	-7143
▁Non	-7144
▁continuing	-7145
▁clinical	-7146
▁stunning	-7147
▁Policy	-7148
▁favourite	-7149
sea	-7150
war	-7151
ione	-7152
▁lifestyle	-7153
irts	-7154
▁computers	-7155
▁consistent	-7156
▁illness	-7157
phones	-7158
grad	-7159
wan	-7160
▁hosting	-7161
▁Source	-7162
▁improving	-7163
▁recognize	-7164
▁Rick	-7165
▁inspiration	-7166
▁Lew	-7167
▁circumstances	-7168
▁amend	-7169
▁Mill	-7170
Bl	-7171
▁Brook	-7172
▁Vegas	-7173
▁vacation	-7174
▁Mobile	-7175
▁marked	-7176
▁slowly	-7177
▁remained	-7178
▁Finally	-7179
▁sought	-7180
▁driven	-7181
▁($	-7182
inte	-7183
▁CNN	-7184
▁km	-7185
▁Philadelphia	-7186
▁Action	-7187
hy	-7188
▁coordin	-7189
▁hel	-7190
▁permanent	-7191
▁acting	-7192
▁counsel	-7193
▁involves	-7194
▁Marc	-7195
alle	-7196
▁Dam	-7197
▁reveal	-7198
▁auto	-7199
▁scheme	-7200
▁marks	-7201
▁headed	-7202
UL	-7203
▁acts	-7204
hire	-7205
▁hosted	-7206
▁tab	-7207
▁somewhere	-7208
▁Looking	-7209
heast	-7210
▁solve	-7211
▁Bat	-7212
▁Major	-7213
▁voting	-7214
▁cos	-7215
▁Est	-7216
▁lawsuit	-7217
▁Bowl	-7218
▁god	-7219
ortion	-7220
▁Travel	-7221
▁Ros	-7222
▁replaced	-7223
▁index	-7224
▁embr	-7225
▁DVD	-7226
▁assign	-7227
▁reputation	-7228
▁interface	-7229
▁museum	-7230
▁Palestin	-7231
▁habit	-7232
▁skill	-7233
▁authent	-7234
▁situations	-7235
▁anniversary	-7236
▁protein	-7237
▁platforms	-7238
▁lucky	-7239
▁soldiers	-7240
▁listening	-7241
iscons	-7242
▁bills	-7243
▁awards	-7244
▁philosoph	-7245
▁grass	-7246
▁producer	-7247
worth	-7248
▁Wilson	-7249
oured	-7250
isconsin	-7251
▁Opt	-7252
▁hidden	-7253
▁kil	-7254
▁accessible	-7255
▁Dark	-7256
Ex	-7257
▁Again	-7258
▁tip	-7259
▁Kelly	-7260
▁hole	-7261
▁roles	-7262
▁papers	-7263
▁primarily	-7264
ls	-7265
▁Buy	-7266
▁Pu	-7267
▁Season	-7268
▁ending	-7269
▁aside	-7270
lastname	-7271
▁creates	-7272
▁bes	-7273
ushed	-7274
▁writes	-7275
▁Syrian	-7276
RS	-7277
▁sustainable	-7278
▁Senior	-7279
▁Turkey	-7280
All	-7281
greg	-7282
▁Tax	-7283
Our	-7284
▁offices	-7285
▁highlights	-7286
idance	-7287
▁sharp	-7288
game	-7289
pes	-7290
▁Ask	-7291
▁Cert	-7292
▁programme	-7293
▁portion	-7294
▁magic	-7295
pool	-7296
▁chairman	-7297
▁Bible	-7298
▁returning	-7299
olis	-7300
iants	-7301
▁soil	-7302
多少	-7303
▁plot	-7304
▁managing	-7305
▁Short	-7306
▁normally	-7307
itals	-7308
rett	-7309
oked	-7310
▁performing	-7311
AF	-7312
Be	-7313
▁Applic	-7314
aron	-7315
▁upload	-7316
▁outstanding	-7317
▁phen	-7318
cm	-7319
▁southern	-7320
ylv	-7321
▁liked	-7322
udi	-7323
▁refe	-7324
▁liquid	-7325
▁Building	-7326
bury	-7327
▁electricity	-7328
▁mic	-7329
▁FREE	-7330
▁default	-7331
▁clothing	-7332
rives	-7333
ensity	-7334
▁dining	-7335
▁Bell	-7336
▁Ju	-7337
isted	-7338
▁requests	-7339
文件	-7340
▁relief	-7341
▁northern	-7342
Un	-7343
▁Romney	-7344
▁styles	-7345
ilton	-7346
bro	-7347
illiant	-7348
▁casino	-7349
▁Guide	-7350
zer	-7351
▁alive	-7352
▁Fred	-7353
▁Kansas	-7354
▁attached	-7355
uis	-7356
▁flour	-7357
▁cock	-7358
amps	-7359
▁bottle	-7360
▁ceremony	-7361
comes	-7362
▁contemporary	-7363
▁coc	-7364
▁forest	-7365
▁Kingdom	-7366
▁Awards	-7367
DP	-7368
▁Cab	-7369
▁Polit	-7370
▁breast	-7371
▁Ah	-7372
▁layer	-7373
▁narrow	-7374
▁convenient	-7375
▁incredibly	-7376
▁bags	-7377
▁engage	-7378
▁flavor	-7379
▁fitness	-7380
▁encoun	-7381
that	-7382
▁string	-7383
▁Made	-7384
▁wave	-7385
▁luxury	-7386
▁falling	-7387
▁somewhat	-7388
▁cameras	-7389
▁legs	-7390
▁rig	-7391
▁lighting	-7392
ATION	-7393
active	-7394
▁lie	-7395
▁phase	-7396
▁procedure	-7397
▁pace	-7398
▁procedures	-7399
▁Should	-7400
bles	-7401
▁combat	-7402
erring	-7403
ificial	-7404
▁Ever	-7405
▁Civil	-7406
obody	-7407
uties	-7408
▁magn	-7409
▁writers	-7410
▁resulting	-7411
▁flying	-7412
stery	-7413
▁tradition	-7414
▁proof	-7415
bell	-7416
▁loans	-7417
▁proven	-7418
▁Wisconsin	-7419
▁Pen	-7420
▁stuck	-7421
▁compens	-7422
▁cann	-7423
amber	-7424
▁Premier	-7425
▁firms	-7426
▁reader	-7427
▁Prom	-7428
▁shouldn	-7429
▁Greg	-7430
▁recy	-7431
________	-7432
▁Drive	-7433
▁defined	-7434
▁unex	-7435
omy	-7436
▁Event	-7437
▁integrated	-7438
▁Ren	-7439
▁Pict	-7440
American	-7441
▁external	-7442
▁withd	-7443
chers	-7444
icket	-7445
▁algorith	-7446
▁feelings	-7447
▁Being	-7448
--------	-7449
▁bunch	-7450
▁Select	-7451
▁Henry	-7452
▁lad	-7453
▁vibr	-7454
des	-7455
▁dollar	-7456
▁Country	-7457
▁deaths	-7458
oore	-7459
▁drag	-7460
▁army	-7461
▁assessment	-7462
▁Mayor	-7463
aters	-7464
▁personally	-7465
▁dur	-7466
▁Enjoy	-7467
ogether	-7468
▁Eastern	-7469
ilipp	-7470
▁divid	-7471
▁Mountain	-7472
▁Golden	-7473
acc	-7474
ugh	-7475
▁Hold	-7476
▁clar	-7477
▁Term	-7478
▁travell	-7479
▁Try	-7480
▁pointed	-7481
▁acid	-7482
fall	-7483
▁formal	-7484
▁Ent	-7485
EG	-7486
▁drawn	-7487
▁Ur	-7488
▁printed	-7489
最终	-7490
▁recognition	-7491
%.	-7492
▁Korean	-7493
▁refused	-7494
▁subsequ	-7495
▁Requ	-7496
friendly	-7497
▁Bang	-7498
aping	-7499
▁declared	-7500
athered	-7501
ylvania	-7502
▁amounts	-7503
▁thorough	-7504
▁reserved	-7505
So	-7506
cr	-7507
usive	-7508
▁Works	-7509
▁bab	-7510
▁governor	-7511
▁Members	-7512
▁blocks	-7513
▁transp	-7514
▁bars	-7515
▁rally	-7516
▁forever	-7517
▁introduction	-7518
▁stood	-7519
esh	-7520
aire	-7521
▁Iowa	-7522
▁Linux	-7523
PU	-7524
ashes	-7525
amework	-7526
▁interpret	-7527
umer	-7528
esters	-7529
▁tact	-7530
li	-7531
▁technique	-7532
pat	-7533
▁strategic	-7534
OVID	-7535
▁Columbia	-7536
▁definition	-7537
▁Austin	-7538
▁stim	-7539
▁deck	-7540
▁vend	-7541
▁Officer	-7542
▁Sir	-7543
▁Subs	-7544
▁elev	-7545
▁drama	-7546
▁pepper	-7547
▁Perform	-7548
▁contribute	-7549
▁arrive	-7550
▁thinks	-7551
▁improvement	-7552
▁heading	-7553
▁Jay	-7554
▁pin	-7555
▁»	-7556
▁Queen	-7557
▁smartphone	-7558
▁correspond	-7559
▁governments	-7560
▁MA	-7561
▁chances	-7562
▁powder	-7563
▁Want	-7564
intage	-7565
▁agric	-7566
▁playoff	-7567
▁Championship	-7568
▁lies	-7569
iform	-7570
▁posting	-7571
▁unknown	-7572
▁eligible	-7573
▁iPad	-7574
▁memories	-7575
▁Square	-7576
▁Mah	-7577
ensus	-7578
▁sheet	-7579
ja	-7580
▁residential	-7581
▁extension	-7582
▁awarded	-7583
▁concert	-7584
▁Sony	-7585
fire	-7586
▁everywhere	-7587
▁publication	-7588
▁controversial	-7589
hour	-7590
▁engaged	-7591
▁squad	-7592
▁smile	-7593
▁powers	-7594
▁Penns	-7595
▁domain	-7596
▁literally	-7597
izon	-7598
▁Jordan	-7599
oir	-7600
价格	-7601
▁sees	-7602
onymous	-7603
最终价格	-7604
再减	-7605
▁displ	-7606
▁destination	-7607
▁Defense	-7608
▁attempts	-7609
etts	-7610
angers	-7611
▁scenes	-7612
▁Pow	-7613
▁categories	-7614
▁CO	-7615
▁statements	-7616
▁Bry	-7617
▁ocean	-7618
ns	-7619
▁Clean	-7620
▁Sarah	-7621
▁dad	-7622
▁unw	-7623
▁array	-7624
▁resort	-7625
lers	-7626
▁Bad	-7627
▁crypt	-7628
▁cute	-7629
oming	-7630
▁Things	-7631
▁McG	-7632
▁Common	-7633
style	-7634
▁initiative	-7635
▁Harry	-7636
izza	-7637
▁attrib	-7638
▁precise	-7639
▁consumption	-7640
▁monitoring	-7641
PC	-7642
▁lists	-7643
▁intense	-7644
▁ultimate	-7645
oker	-7646
▁PA	-7647
erman	-7648
▁dust	-7649
▁~	-7650
itled	-7651
▁denied	-7652
▁FA	-7653
▁wet	-7654
▁Stock	-7655
▁Perhaps	-7656
▁troops	-7657
▁forecast	-7658
How	-7659
called	-7660
▁lessons	-7661
▁Ba	-7662
▁Ter	-7663
▁iOS	-7664
▁Capt	-7665
▁Base	-7666
▁luck	-7667
▁submitted	-7668
▁Matthew	-7669
▁Print	-7670
▁deploy	-7671
Fi	-7672
▁empty	-7673
▁Very	-7674
ey	-7675
stal	-7676
▁permission	-7677
▁ease	-7678
▁OK	-7679
▁OR	-7680
inding	-7681
▁capabilities	-7682
amental	-7683
▁Snow	-7684
▁anyway	-7685
▁savings	-7686
▁membership	-7687
▁Hi	-7688
▁dump	-7689
making	-7690
▁targeted	-7691
▁Order	-7692
▁quote	-7693
’,	-7694
▁breath	-7695
▁experim	-7696
▁producing	-7697
plate	-7698
lder	-7699
▁clubs	-7700
▁dreams	-7701
▁succeed	-7702
▁constant	-7703
▁pink	-7704
ifer	-7705
aper	-7706
▁expression	-7707
▁dynamic	-7708
dney	-7709
usal	-7710
▁comic	-7711
▁raising	-7712
▁gent	-7713
ennis	-7714
rition	-7715
▁stead	-7716
▁entering	-7717
▁hire	-7718
▁guidance	-7719
▁reducing	-7720
▁Gov	-7721
▁unusual	-7722
▁opposite	-7723
▁crack	-7724
▁Dream	-7725
▁roughly	-7726
▁suspend	-7727
annels	-7728
▁virus	-7729
▁bridge	-7730
▁leather	-7731
uine	-7732
▁Line	-7733
AND	-7734
▁gifts	-7735
▁NBC	-7736
▁alt	-7737
▁Os	-7738
▁Number	-7739
▁glad	-7740
▁Capital	-7741
▁inch	-7742
▁birds	-7743
▁Age	-7744
andal	-7745
▁covering	-7746
overty	-7747
sole	-7748
▁raw	-7749
▁resistance	-7750
▁duty	-7751
achel	-7752
▁preparing	-7753
iti	-7754
▁behalf	-7755
rog	-7756
▁Alab	-7757
▁Ltd	-7758
▁explan	-7759
▁bonus	-7760
▁achieved	-7761
▁commonly	-7762
ushing	-7763
▁Garden	-7764
▁Dave	-7765
▁puts	-7766
▁warned	-7767
She	-7768
▁hack	-7769
▁controls	-7770
ultural	-7771
▁pushed	-7772
▁Former	-7773
▁frag	-7774
▁gotten	-7775
▁Mess	-7776
▁priority	-7777
▁seed	-7778
eling	-7779
nders	-7780
lined	-7781
lessly	-7782
▁Pennsylvania	-7783
ERE	-7784
▁qualified	-7785
eping	-7786
▁root	-7787
▁Bol	-7788
▁traveling	-7789
▁criticism	-7790
▁abandon	-7791
▁arrang	-7792
engers	-7793
▁CL	-7794
fin	-7795
▁Smart	-7796
▁dismiss	-7797
▁upgrade	-7798
▁regions	-7799
▁currency	-7800
iac	-7801
▁Safety	-7802
▁struggling	-7803
▁tie	-7804
▁firstname	-7805
achus	-7806
pton	-7807
▁lets	-7808
▁architecture	-7809
▁oven	-7810
▁shops	-7811
▁Fact	-7812
▁Motor	-7813
▁Account	-7814
▁underst	-7815
▁Stadium	-7816
iot	-7817
folio	-7818
▁Staff	-7819
▁?	-7820
▁stake	-7821
▁Ukraine	-7822
obb	-7823
▁armed	-7824
▁compete	-7825
▁singer	-7826
ifies	-7827
holders	-7828
▁faculty	-7829
▁Balt	-7830
▁aimed	-7831
▁choosing	-7832
▁Sav	-7833
▁compr	-7834
lee	-7835
▁accomplish	-7836
▁racing	-7837
▁recover	-7838
▁Case	-7839
▁roads	-7840
▁deeply	-7841
▁kit	-7842
▁Editor	-7843
▁principles	-7844
▁PH	-7845
▁gained	-7846
▁exposed	-7847
▁fishing	-7848
▁photography	-7849
答案	-7850
▁Mrs	-7851
▁Jam	-7852
▁Spec	-7853
▁Everyone	-7854
▁Ont	-7855
.|	-7856
▁Cond	-7857
▁SS	-7858
ystem	-7859
▁evolution	-7860
▁Patrick	-7861
▁Size	-7862
▁spots	-7863
答案是	-7864
abeth	-7865
▁Scient	-7866
aka	-7867
▁USB	-7868
▁isol	-7869
,'	-7870
▁tiss	-7871
then	-7872
▁DNA	-7873
▁Phys	-7874
zing	-7875
▁fuck	-7876
▁shell	-7877
▁exposure	-7878
▁implementation	-7879
▁temperatures	-7880
▁Core	-7881
▁pilot	-7882
icking	-7883
bridge	-7884
▁Phone	-7885
接着	-7886
▁Update	-7887
▁CB	-7888
ille	-7889
▁BE	-7890
▁Dist	-7891
▁packed	-7892
▁aspect	-7893
▁heavily	-7894
▁veteran	-7895
▁ru	-7896
month	-7897
▁decline	-7898
▁Vice	-7899
▁Without	-7900
▁emissions	-7901
▁screens	-7902
▁weapon	-7903
ko	-7904
▁Five	-7905
rend	-7906
unes	-7907
▁connections	-7908
▁Alabama	-7909
▁granted	-7910
▁Sound	-7911
▁Galaxy	-7912
▁Beaut	-7913
▁saved	-7914
ressed	-7915
▁anymore	-7916
▁comedy	-7917
▁Independ	-7918
▁introduce	-7919
▁eleg	-7920
oric	-7921
▁advent	-7922
▁pharm	-7923
▁flexible	-7924
ventional	-7925
▁Nations	-7926
▁nations	-7927
isa	-7928
▁Lar	-7929
ificate	-7930
▁zero	-7931
▁absor	-7932
▁interviews	-7933
ellect	-7934
▁Arm	-7935
▁captured	-7936
▁NASA	-7937
▁alarm	-7938
▁laid	-7939
▁loud	-7940
FA	-7941
▁Airport	-7942
▁Training	-7943
bits	-7944
iking	-7945
eler	-7946
asant	-7947
▁Film	-7948
▁Sydney	-7949
▁crimes	-7950
etary	-7951
▁Origin	-7952
zens	-7953
wr	-7954
▁finger	-7955
▁Resp	-7956
▁everybody	-7957
achusetts	-7958
▁Philipp	-7959
▁exhibition	-7960
agan	-7961
▁Exp	-7962
▁rural	-7963
▁我在做	-7964
▁controlled	-7965
▁shortly	-7966
▁PDF	-7967
▁Has	-7968
▁mile	-7969
▁Rand	-7970
▁Happy	-7971
▁Cro	-7972
▁presents	-7973
▁Greek	-7974
▁moist	-7975
▁riding	-7976
▁Express	-7977
▁noise	-7978
▁prohib	-7979
▁dipl	-7980
▁ske	-7981
▁Systems	-7982
▁brilliant	-7983
▁mob	-7984
▁Nic	-7985
▁sensitive	-7986
rolled	-7987
▁Cra	-7988
iscal	-7989
▁Brand	-7990
iary	-7991
ilst	-7992
▁dozen	-7993
▁tied	-7994
▁improvements	-7995
▁brew	-7996
▁handling	-7997
▁€	-7998
SE	-7999
▁Cut	-8000
▁prosecut	-8001
▁Emer	-8002
RL	-8003
TON	-8004
▁tor	-8005
pport	-8006
▁secretary	-8007
▁graphics	-8008
▁butt	-8009
▁casual	-8010
▁threats	-8011
▁targets	-8012
▁bow	-8013
▁Give	-8014
▁Given	-8015
▁retirement	-8016
she	-8017
▁harder	-8018
▁describes	-8019
etch	-8020
imp	-8021
▁Early	-8022
▁enthusi	-8023
▁pleasure	-8024
bow	-8025
raid	-8026
▁smell	-8027
▁recipes	-8028
▁Albert	-8029
▁Chall	-8030
▁rental	-8031
▁Deb	-8032
▁instrument	-8033
ali	-8034
▁Mun	-8035
▁Afghanistan	-8036
▁comparison	-8037
▁Marketing	-8038
▁Ministry	-8039
onic	-8040
▁consequences	-8041
▁limits	-8042
▁factory	-8043
▁Viet	-8044
inating	-8045
illance	-8046
▁decent	-8047
▁visible	-8048
▁Standard	-8049
▁fewer	-8050
▁Eag	-8051
vas	-8052
eria	-8053
▁stations	-8054
▁escape	-8055
▁Transport	-8056
▁loyal	-8057
▁Cry	-8058
▁wireless	-8059
▁guidelines	-8060
▁gathered	-8061
▁je	-8062
▁Station	-8063
▁overse	-8064
wich	-8065
▁WW	-8066
▁facilit	-8067
athy	-8068
aste	-8069
▁reasonable	-8070
uct	-8071
▁violent	-8072
▁blind	-8073
arring	-8074
▁celebration	-8075
▁Fac	-8076
▁ABC	-8077
▁subsid	-8078
▁LED	-8079
ouver	-8080
▁stable	-8081
▁Anthony	-8082
woman	-8083
▁muscle	-8084
▁opposed	-8085
▁Hay	-8086
▁stronger	-8087
▁smoke	-8088
'.	-8089
▁signal	-8090
aun	-8091
▁boxes	-8092
▁filter	-8093
▁saving	-8094
▁Football	-8095
,’	-8096
riers	-8097
▁suddenly	-8098
▁Massachusetts	-8099
▁cm	-8100
▁blank	-8101
▁Mov	-8102
▁allegations	-8103
▁Eliz	-8104
▁III	-8105
GA	-8106
▁Indiana	-8107
▁mood	-8108
▁COVID	-8109
▁vit	-8110
pay	-8111
quarters	-8112
▁insight	-8113
▁Pitt	-8114
▁Shop	-8115
▁Toy	-8116
▁manual	-8117
orgeous	-8118
▁speaker	-8119
▁opens	-8120
▁hitting	-8121
▁diseases	-8122
CO	-8123
▁mistake	-8124
▁inner	-8125
▁Medicine	-8126
opher	-8127
▁guns	-8128
▁neither	-8129
▁scoring	-8130
▁Studies	-8131
代码	-8132
high	-8133
▁Front	-8134
▁engagement	-8135
▁satell	-8136
▁password	-8137
▁CON	-8138
▁closing	-8139
lah	-8140
▁Norm	-8141
▁phenomen	-8142
▁Pract	-8143
▁offense	-8144
▁complaint	-8145
▁ruled	-8146
▁universe	-8147
▁merch	-8148
ivalent	-8149
yo	-8150
Sc	-8151
ima	-8152
▁aims	-8153
▁wash	-8154
▁orange	-8155
ults	-8156
▁Anton	-8157
▁mechanism	-8158
quality	-8159
▁volunteers	-8160
▁sew	-8161
oen	-8162
olen	-8163
ancouver	-8164
▁centers	-8165
▁generated	-8166
▁Sales	-8167
▁consists	-8168
▁||	-8169
▁porn	-8170
▁Saudi	-8171
▁politicians	-8172
▁unem	-8173
Get	-8174
▁personnel	-8175
uma	-8176
▁meets	-8177
▁Conserv	-8178
▁gap	-8179
▁enjoying	-8180
▁attempted	-8181
▁ol	-8182
wered	-8183
▁que	-8184
▁staying	-8185
▁promised	-8186
▁worried	-8187
apore	-8188
▁tomat	-8189
jo	-8190
▁Ross	-8191
▁personality	-8192
▁Available	-8193
▁obst	-8194
rets	-8195
▁industries	-8196
ceived	-8197
▁Natural	-8198
▁cul	-8199
▁Visit	-8200
shire	-8201
era	-8202
▁calendar	-8203
▁fo	-8204
viously	-8205
▁manufacturers	-8206
▁Lyn	-8207
▁recru	-8208
▁necessarily	-8209
▁demands	-8210
elect	-8211
▁essentially	-8212
▁Was	-8213
▁Student	-8214
▁mortgage	-8215
▁Six	-8216
ulpt	-8217
anted	-8218
▁Change	-8219
▁recommendations	-8220
▁Several	-8221
abis	-8222
▁spiritual	-8223
▁concrete	-8224
▁Band	-8225
▁Brother	-8226
▁province	-8227
▁unve	-8228
▁strongly	-8229
▁availability	-8230
▁milit	-8231
▁publicly	-8232
▁flo	-8233
▁Kir	-8234
▁regardless	-8235
rm	-8236
minute	-8237
▁evil	-8238
▁Trade	-8239
▁rug	-8240
▁component	-8241
heim	-8242
izer	-8243
▁Moore	-8244
▁channels	-8245
▁compat	-8246
▁Po	-8247
ami	-8248
▁fundamental	-8249
▁Bud	-8250
▁Kong	-8251
▁attending	-8252
▁childhood	-8253
▁languages	-8254
▁Hur	-8255
▁tone	-8256
words	-8257
To	-8258
▁tracking	-8259
▁venue	-8260
▁Roman	-8261
▁stages	-8262
▁gang	-8263
▁stab	-8264
days	-8265
igate	-8266
▁attractive	-8267
char	-8268
▁Brew	-8269
▁meals	-8270
▁explo	-8271
▁Denver	-8272
world	-8273
▁rapidly	-8274
▁western	-8275
▁unexpected	-8276
faction	-8277
▁cha	-8278
▁fest	-8279
uten	-8280
▁Xbox	-8281
▁Software	-8282
▁ham	-8283
veland	-8284
brid	-8285
▁Olympic	-8286
▁Lib	-8287
▁viewers	-8288
▁synt	-8289
▁Mother	-8290
▁usage	-8291
▁tape	-8292
▁nomine	-8293
▁neut	-8294
▁Cloud	-8295
▁Justin	-8296
▁weird	-8297
▁charity	-8298
RC	-8299
iley	-8300
▁Ess	-8301
asted	-8302
▁Therefore	-8303
▁acknowled	-8304
▁vess	-8305
▁Learning	-8306
odge	-8307
▁terrorist	-8308
▁encouraged	-8309
▁cyber	-8310
▁Gro	-8311
▁Earlier	-8312
eland	-8313
▁Cooper	-8314
▁Vancouver	-8315
xx	-8316
▁coup	-8317
acher	-8318
▁fiction	-8319
▁existence	-8320
▁Buff	-8321
earing	-8322
▁Gallery	-8323
▁representative	-8324
▁’	-8325
▁Ten	-8326
▁cups	-8327
▁bacter	-8328
EP	-8329
ulating	-8330
▁tired	-8331
▁managers	-8332
▁pushing	-8333
ifting	-8334
▁shirt	-8335
imize	-8336
▁divor	-8337
▁Own	-8338
▁strict	-8339
abetes	-8340
▁complicated	-8341
▁acquis	-8342
▁packages	-8343
▁Engineering	-8344
▁gym	-8345
▁mixture	-8346
▁genuine	-8347
▁Proper	-8348
enth	-8349
▁Bridge	-8350
▁Updated	-8351
▁interactive	-8352
books	-8353
▁Du	-8354
imore	-8355
▁Living	-8356
▁pocket	-8357
CT	-8358
▁Easy	-8359
▁requested	-8360
▁represented	-8361
▁Governor	-8362
ez	-8363
▁ED	-8364
▁Allen	-8365
▁podcast	-8366
▁structures	-8367
▁Steel	-8368
▁nights	-8369
▁Stone	-8370
▁pill	-8371
▁Sug	-8372
',	-8373
▁ESP	-8374
ronics	-8375
▁Entertain	-8376
▁Talk	-8377
▁borrow	-8378
▁Moh	-8379
De	-8380
▁myster	-8381
▁whenever	-8382
▁talented	-8383
▁Hong	-8384
▁trailer	-8385
ho	-8386
▁Lewis	-8387
ela	-8388
▁defeat	-8389
▁>>	-8390
▁Gree	-8391
ASH	-8392
▁tox	-8393
▁footage	-8394
▁Remember	-8395
winning	-8396
AB	-8397
step	-8398
▁desper	-8399
▁DO	-8400
▁neighb	-8401
▁activists	-8402
▁reduction	-8403
▁fing	-8404
▁anxiety	-8405
▁Roy	-8406
▁accessories	-8407
▁shoulder	-8408
▁subscrib	-8409
实现	-8410
stra	-8411
▁Webs	-8412
▁Bed	-8413
▁contributions	-8414
Photo	-8415
▁performances	-8416
▁Such	-8417
▁prize	-8418
▁restrictions	-8419
▁outcome	-8420
▁Rs	-8421
aret	-8422
▁quarterback	-8423
▁preparation	-8424
▁opinions	-8425
▁Model	-8426
▁arrival	-8427
▁Professional	-8428
▁equipped	-8429
▁Produ	-8430
▁passes	-8431
▁waters	-8432
▁fake	-8433
▁pled	-8434
▁confront	-8435
▁adopted	-8436
▁recre	-8437
▁thousand	-8438
▁Edition	-8439
▁weigh	-8440
▁compare	-8441
▁disaster	-8442
▁ET	-8443
▁Senator	-8444
▁Conc	-8445
▁Save	-8446
▁branch	-8447
▁uncle	-8448
Man	-8449
▁Eth	-8450
▁Michel	-8451
including	-8452
女生	-8453
agers	-8454
onder	-8455
▁treatments	-8456
bourne	-8457
omatic	-8458
▁Protection	-8459
▁championship	-8460
▁Personal	-8461
OO	-8462
mate	-8463
▁fault	-8464
▁;	-8465
▁rice	-8466
▁scores	-8467
ila	-8468
▁farmers	-8469
▁recon	-8470
▁afraid	-8471
▁Navy	-8472
▁Corporation	-8473
▁Ven	-8474
ardens	-8475
essee	-8476
haust	-8477
▁Hawai	-8478
▁lady	-8479
▁dramatic	-8480
rient	-8481
▁scan	-8482
▁garage	-8483
▁myth	-8484
▁fur	-8485
▁Would	-8486
▁Labour	-8487
▁pand	-8488
▁gig	-8489
▁Java	-8490
elry	-8491
▁temporary	-8492
stract	-8493
▁Moon	-8494
ouri	-8495
▁twenty	-8496
▁lifetime	-8497
▁statistics	-8498
▁Forest	-8499
▁shower	-8500
▁rival	-8501
▁intention	-8502
At	-8503
▁gallery	-8504
▁reaching	-8505
▁baking	-8506
▁wondering	-8507
▁Liver	-8508
▁yield	-8509
▁contracts	-8510
▁studying	-8511
▁Singapore	-8512
▁Represent	-8513
▁Based	-8514
▁outs	-8515
lahoma	-8516
▁bold	-8517
▁agenda	-8518
▁expanded	-8519
▁campaigns	-8520
screen	-8521
▁Portland	-8522
▁printing	-8523
▁tap	-8524
child	-8525
▁tort	-8526
▁Magazine	-8527
▁Theatre	-8528
▁suggestions	-8529
▁cust	-8530
▁rely	-8531
▁lect	-8532
▁Table	-8533
▁Article	-8534
▁Memorial	-8535
▁Elizabeth	-8536
owed	-8537
▁ranked	-8538
▁Anderson	-8539
▁Maryland	-8540
acular	-8541
▁ministry	-8542
▁loving	-8543
▁holidays	-8544
▁passengers	-8545
oz	-8546
▁AF	-8547
▁drinks	-8548
▁laptop	-8549
▁contained	-8550
▁Barb	-8551
▁stir	-8552
etry	-8553
▁Sep	-8554
▁discovery	-8555
ordinary	-8556
▁focuses	-8557
▁Dur	-8558
▁rolling	-8559
▁engaging	-8560
orous	-8561
▁Write	-8562
▁juice	-8563
▁assume	-8564
▁retired	-8565
Pl	-8566
▁recall	-8567
▁expenses	-8568
▁communicate	-8569
▁Bow	-8570
▁Chel	-8571
▁penalty	-8572
▁Speaking	-8573
backs	-8574
aimed	-8575
▁uncom	-8576
▁rh	-8577
ateful	-8578
▁hint	-8579
▁Grow	-8580
▁sin	-8581
▁Cand	-8582
▁Everything	-8583
▁hip	-8584
market	-8585
▁sevent	-8586
▁lawyers	-8587
▁buck	-8588
▁Prince	-8589
▁maintaining	-8590
▁samples	-8591
▁Ocean	-8592
imm	-8593
▁plain	-8594
▁Ban	-8595
inf	-8596
olar	-8597
▁semi	-8598
▁Bloom	-8599
▁surge	-8600
▁aged	-8601
▁slot	-8602
▁extent	-8603
▁FC	-8604
▁loose	-8605
▁streaming	-8606
ira	-8607
▁removal	-8608
▁classroom	-8609
▁CBS	-8610
▁gentle	-8611
▁portfolio	-8612
from	-8613
▁Delhi	-8614
▁releases	-8615
▁tackle	-8616
▁suicide	-8617
▁electrical	-8618
▁swimming	-8619
▁Entertainment	-8620
▁uniform	-8621
auc	-8622
′′	-8623
▁Wales	-8624
▁Cleveland	-8625
▁fantasy	-8626
▁Mail	-8627
▁possession	-8628
▁claiming	-8629
▁combine	-8630
▁diversity	-8631
▁blend	-8632
▁breaks	-8633
▁Foreign	-8634
▁solo	-8635
▁Som	-8636
▁comprom	-8637
▁unlikely	-8638
▁Mars	-8639
▁clock	-8640
▁Mexican	-8641
sect	-8642
▁Ide	-8643
▁Could	-8644
week	-8645
▁Cub	-8646
▁Gun	-8647
▁Continue	-8648
▁admit	-8649
▁damaged	-8650
▁equivalent	-8651
ieties	-8652
▁containing	-8653
▁yard	-8654
▁instant	-8655
▁prominent	-8656
▁UC	-8657
▁Bron	-8658
▁Site	-8659
▁colon	-8660
▁gathering	-8661
▁declined	-8662
▁CR	-8663
▁LLC	-8664
maker	-8665
▁workshop	-8666
▁Eve	-8667
▁poverty	-8668
MC	-8669
isp	-8670
kee	-8671
▁signature	-8672
▁Tro	-8673
▁uncertain	-8674
▁Trib	-8675
core	-8676
▁ly	-8677
erving	-8678
▁danger	-8679
▁Ontario	-8680
▁framework	-8681
▁survive	-8682
▁spir	-8683
▁parliament	-8684
▁amid	-8685
▁pig	-8686
rowse	-8687
▁Utah	-8688
▁phrase	-8689
▁consideration	-8690
▁distr	-8691
▁addresses	-8692
▁relative	-8693
Donald	-8694
▁hung	-8695
▁Sport	-8696
帮我	-8697
▁bull	-8698
▁spray	-8699
▁Map	-8700
eman	-8701
▁Reading	-8702
▁naturally	-8703
▁certified	-8704
▁focusing	-8705
▁Niger	-8706
▁blame	-8707
▁argued	-8708
▁gorgeous	-8709
isan	-8710
▁clip	-8711
▁trem	-8712
▁stored	-8713
ologists	-8714
▁Oklahoma	-8715
AV	-8716
zes	-8717
tics	-8718
ludes	-8719
▁losses	-8720
▁displayed	-8721
teen	-8722
▁Marsh	-8723
▁Kentucky	-8724
▁discussions	-8725
aga	-8726
prof	-8727
▁deeper	-8728
▁MD	-8729
▁Treat	-8730
One	-8731
▁CS	-8732
NC	-8733
▁legit	-8734
▁proved	-8735
tail	-8736
▁Baltimore	-8737
ools	-8738
▁Morgan	-8739
ji	-8740
▁dozens	-8741
▁Comb	-8742
▁Near	-8743
▁sorry	-8744
pending	-8745
▁swing	-8746
being	-8747
▁lift	-8748
bered	-8749
▁Iron	-8750
▁winners	-8751
QL	-8752
▁Latin	-8753
▁persons	-8754
▁ties	-8755
▁stayed	-8756
▁minimal	-8757
▁protests	-8758
▁couples	-8759
▁terrible	-8760
tes	-8761
ambling	-8762
▁roster	-8763
attan	-8764
ocation	-8765
▁Studio	-8766
▁Vers	-8767
▁promoting	-8768
▁Ark	-8769
gun	-8770
▁lin	-8771
▁Simon	-8772
▁rarely	-8773
▁intellect	-8774
IST	-8775
▁speakers	-8776
▁desktop	-8777
▁episodes	-8778
▁tablet	-8779
▁Material	-8780
▁Tennessee	-8781
▁integration	-8782
igious	-8783
▁gre	-8784
ounced	-8785
▁studied	-8786
▁distributed	-8787
▁mm	-8788
▁Ast	-8789
▁vegetables	-8790
▁resulted	-8791
power	-8792
▁buyers	-8793
▁appointed	-8794
▁volunteer	-8795
olds	-8796
▁gal	-8797
chain	-8798
▁Auto	-8799
sa	-8800
▁Spirit	-8801
idency	-8802
▁pregnant	-8803
▁understood	-8804
▁transactions	-8805
utter	-8806
▁wanting	-8807
▁photographs	-8808
▁regime	-8809
▁devast	-8810
▁reporter	-8811
▁territory	-8812
▁enterprise	-8813
▁acquired	-8814
▁Victoria	-8815
▁Fast	-8816
▁listing	-8817
▁exploring	-8818
▁association	-8819
▁Hu	-8820
▁exceed	-8821
▁Partners	-8822
erning	-8823
▁ski	-8824
▁Corn	-8825
ospitals	-8826
▁coaching	-8827
GBT	-8828
▁discip	-8829
▁emerged	-8830
▁participating	-8831
][	-8832
▁races	-8833
▁Total	-8834
▁purchasing	-8835
▁Sure	-8836
mod	-8837
▁param	-8838
rav	-8839
tery	-8840
▁Sab	-8841
inking	-8842
▁liberal	-8843
▁Mom	-8844
▁falls	-8845
han	-8846
yes	-8847
▁Ox	-8848
▁Bull	-8849
▁Modern	-8850
▁Channel	-8851
▁viewing	-8852
▁functional	-8853
▁courts	-8854
mann	-8855
▁NO	-8856
App	-8857
▁angry	-8858
▁patch	-8859
▁subjects	-8860
▁DJ	-8861
▁soccer	-8862
Hz	-8863
▁Turk	-8864
▁Cow	-8865
▁Kind	-8866
▁Da	-8867
▁Ted	-8868
▁brothers	-8869
dit	-8870
limited	-8871
▁estimates	-8872
▁EX	-8873
upid	-8874
▁coaches	-8875
▁fundra	-8876
ighth	-8877
▁undert	-8878
HS	-8879
▁Atlantic	-8880
▁moon	-8881
▁Father	-8882
▁philosophy	-8883
)|	-8884
▁preferred	-8885
▁chest	-8886
▁iconic	-8887
▁begun	-8888
▁horror	-8889
through	-8890
▁Howard	-8891
acious	-8892
▁lowest	-8893
▁Analy	-8894
▁Final	-8895
▁junior	-8896
oding	-8897
▁seeds	-8898
▁trips	-8899
fr	-8900
iden	-8901
▁indicate	-8902
▁congress	-8903
▁Barn	-8904
▁Break	-8905
▁Cruz	-8906
▁Sheriff	-8907
▁asks	-8908
▁surveillance	-8909
UST	-8910
▁literature	-8911
▁depends	-8912
▁Parliament	-8913
▁organis	-8914
▁privile	-8915
▁emerging	-8916
▁Interest	-8917
▁encounter	-8918
▁knee	-8919
▁entrance	-8920
▁Lady	-8921
▁titled	-8922
▁specialist	-8923
▁AB	-8924
▁Var	-8925
▁sear	-8926
▁Winter	-8927
▁tutorial	-8928
▁Sant	-8929
▁Ak	-8930
▁Nav	-8931
anguage	-8932
▁Prop	-8933
▁Intel	-8934
▁fiscal	-8935
▁somehow	-8936
▁overwhelming	-8937
▁bone	-8938
cho	-8939
▁backed	-8940
▁Rh	-8941
▁Bureau	-8942
don	-8943
▁enables	-8944
▁fits	-8945
aver	-8946
▁settlement	-8947
▁Doc	-8948
ervations	-8949
——	-8950
▁hanging	-8951
oln	-8952
▁FL	-8953
▁handful	-8954
▁Kids	-8955
▁IM	-8956
▁Sem	-8957
▁suffer	-8958
break	-8959
apolis	-8960
▁worker	-8961
▁Month	-8962
▁athletes	-8963
▁recruit	-8964
▁SE	-8965
▁garlic	-8966
▁visits	-8967
rimination	-8968
▁conversations	-8969
UM	-8970
▁Jane	-8971
▁concepts	-8972
▁Harris	-8973
▁ensuring	-8974
▁popularity	-8975
wear	-8976
▁chips	-8977
iour	-8978
roduction	-8979
▁sections	-8980
gener	-8981
▁ESPN	-8982
▁flights	-8983
▁deadline	-8984
leep	-8985
▁sed	-8986
ulum	-8987
▁guaranteed	-8988
igen	-8989
▁designers	-8990
▁bands	-8991
zzle	-8992
▁handed	-8993
▁latter	-8994
▁checking	-8995
▁UFC	-8996
▁Alp	-8997
▁NHL	-8998
▁depression	-8999
▁Hart	-9000
▁hide	-9001
▁actress	-9002
▁mainstream	-9003
TE	-9004
▁Holy	-9005
▁Orange	-9006
▁sixth	-9007
▁entitled	-9008
▁warming	-9009
▁desired	-9010
ista	-9011
▁ans	-9012
▁pride	-9013
▁lesson	-9014
sized	-9015
Book	-9016
▁vent	-9017
▁sne	-9018
▁Clin	-9019
▁errors	-9020
▁copies	-9021
▁deleg	-9022
▁Working	-9023
▁minds	-9024
▁peak	-9025
grade	-9026
▁alert	-9027
▁rescue	-9028
▁cookies	-9029
▁FR	-9030
▁Beck	-9031
▁cotton	-9032
▁careful	-9033
▁promotion	-9034
▁artificial	-9035
▁hired	-9036
▁Walker	-9037
flix	-9038
▁Imm	-9039
▁servers	-9040
▁upset	-9041
▁respectively	-9042
vard	-9043
cycle	-9044
▁Tel	-9045
ership	-9046
▁Tok	-9047
isdom	-9048
▁superior	-9049
▁MORE	-9050
▁Environmental	-9051
▁divided	-9052
▁graphic	-9053
Se	-9054
▁ranging	-9055
HA	-9056
rer	-9057
▁:)	-9058
▁Mix	-9059
▁pursue	-9060
▁Published	-9061
apse	-9062
▁lawmakers	-9063
▁equally	-9064
lude	-9065
iler	-9066
▁representing	-9067
tra	-9068
▁apolog	-9069
▁dental	-9070
▁aer	-9071
Ad	-9072
▁Unlike	-9073
▁Quality	-9074
▁Wik	-9075
▁bug	-9076
▁Craig	-9077
▁permit	-9078
▁mac	-9079
▁Quick	-9080
▁exists	-9081
▁Az	-9082
▁Roll	-9083
▁exhaust	-9084
▁segment	-9085
▁pricing	-9086
▁documentary	-9087
IE	-9088
olly	-9089
proof	-9090
▁Level	-9091
▁investigate	-9092
加上	-9093
▁withdraw	-9094
▁inquir	-9095
▁setup	-9096
▁Insurance	-9097
ogen	-9098
otte	-9099
▁Reuters	-9100
▁sculpt	-9101
iere	-9102
▁shr	-9103
...]	-9104
▁Democrat	-9105
TER	-9106
▁indicated	-9107
senal	-9108
▁Jess	-9109
PP	-9110
▁Univers	-9111
▁checked	-9112
oween	-9113
itzer	-9114
▁drove	-9115
▁argue	-9116
▁keyboard	-9117
▁mask	-9118
▁bub	-9119
▁salary	-9120
▁delivering	-9121
▁cam	-9122
▁Unt	-9123
▁Sche	-9124
▁Gary	-9125
▁refund	-9126
▁destroyed	-9127
ovation	-9128
▁lake	-9129
▁admin	-9130
▁globe	-9131
▁Authority	-9132
▁pregnancy	-9133
nell	-9134
▁teasp	-9135
▁exceptional	-9136
▁Budd	-9137
▁banking	-9138
▁observed	-9139
▁Death	-9140
▁fru	-9141
▁Regional	-9142
▁aggressive	-9143
▁calm	-9144
▁Les	-9145
▁Less	-9146
▁filling	-9147
▁holes	-9148
▁flaw	-9149
▁newest	-9150
▁tub	-9151
▁hosts	-9152
mble	-9153
▁Andy	-9154
▁Psych	-9155
aud	-9156
▁mole	-9157
▁Fab	-9158
▁dual	-9159
▁grounds	-9160
▁API	-9161
▁reveals	-9162
▁exch	-9163
▁Location	-9164
▁BM	-9165
▁chronic	-9166
▁Annual	-9167
▁ele	-9168
▁stolen	-9169
elle	-9170
▁passionate	-9171
site	-9172
▁Member	-9173
bound	-9174
▁maps	-9175
▁Ident	-9176
▁Gre	-9177
atile	-9178
▁Missouri	-9179
▁participation	-9180
▁Edward	-9181
▁virtually	-9182
avor	-9183
▁conscious	-9184
▁till	-9185
▁Process	-9186
PG	-9187
▁Kl	-9188
▁Liverpool	-9189
▁dishes	-9190
ingham	-9191
▁cow	-9192
▁drives	-9193
▁Muslims	-9194
▁Bes	-9195
▁investigating	-9196
▁Effect	-9197
▁implemented	-9198
▁estimate	-9199
▁enemy	-9200
giving	-9201
Reuters	-9202
▁maintained	-9203
▁Choose	-9204
▁cancel	-9205
▁hyper	-9206
▁producers	-9207
dale	-9208
inar	-9209
▁panels	-9210
▁accuracy	-9211
▁Forum	-9212
▁Subscribe	-9213
ears	-9214
ii	-9215
▁Sex	-9216
▁requirement	-9217
▁burning	-9218
▁Pur	-9219
▁roots	-9220
▁Experience	-9221
▁repeatedly	-9222
▁stro	-9223
incoln	-9224
▁suspended	-9225
▁threatened	-9226
▁alter	-9227
▁radical	-9228
▁investments	-9229
▁ownership	-9230
▁Bh	-9231
▁Corp	-9232
▁Creek	-9233
▁prospect	-9234
elson	-9235
encing	-9236
▁hadn	-9237
▁Collect	-9238
▁constit	-9239
BM	-9240
▁promises	-9241
agen	-9242
def	-9243
intendo	-9244
数列	-9245
▁Jean	-9246
irus	-9247
▁Battle	-9248
▁singles	-9249
▁flags	-9250
▁innoc	-9251
▁authentic	-9252
▁Classic	-9253
▁Money	-9254
▁Andre	-9255
angle	-9256
ainless	-9257
ounce	-9258
▁Stew	-9259
▁Marvel	-9260
orneys	-9261
▁Return	-9262
▁Collection	-9263
▁protesters	-9264
▁photographer	-9265
this	-9266
▁surrounded	-9267
ito	-9268
▁counts	-9269
▁SM	-9270
anth	-9271
vironments	-9272
▁elsewhere	-9273
项是	-9274
▁Lam	-9275
ocking	-9276
▁Assembly	-9277
▁pandemic	-9278
ifted	-9279
▁Chapter	-9280
▁remem	-9281
▁Currently	-9282
ibl	-9283
▁tons	-9284
oof	-9285
pire	-9286
▁Affairs	-9287
vision	-9288
▁Along	-9289
▁mistakes	-9290
▁rejected	-9291
▁Books	-9292
▁attacked	-9293
▁contribution	-9294
▁Due	-9295
▁math	-9296
▁Assistant	-9297
itr	-9298
iffe	-9299
▁sod	-9300
Press	-9301
ds	-9302
uros	-9303
▁reven	-9304
▁Associated	-9305
▁Paper	-9306
▁attitude	-9307
▁Impro	-9308
▁viewed	-9309
▁possess	-9310
▁infection	-9311
▁hydro	-9312
nie	-9313
▁Estate	-9314
ART	-9315
piece	-9316
▁Doctor	-9317
▁Friends	-9318
▁GT	-9319
▁Burn	-9320
▁parks	-9321
▁donations	-9322
oenix	-9323
▁singing	-9324
▁barely	-9325
zed	-9326
azi	-9327
▁Leon	-9328
▁remarkable	-9329
▁universities	-9330
IGH	-9331
quis	-9332
cery	-9333
▁picking	-9334
▁addressed	-9335
▁Tam	-9336
▁mad	-9337
▁Laur	-9338
▁define	-9339
▁Village	-9340
▁approaches	-9341
▁representatives	-9342
▁robot	-9343
▁等	-9344
olph	-9345
▁Brooklyn	-9346
inth	-9347
▁tooth	-9348
olt	-9349
▁Rap	-9350
▁sufficient	-9351
▁hotels	-9352
▁nose	-9353
cut	-9354
▁NC	-9355
▁Chelsea	-9356
▁answered	-9357
▁lens	-9358
pack	-9359
▁TR	-9360
▁themes	-9361
orse	-9362
▁buff	-9363
▁Chairman	-9364
▁explanation	-9365
ika	-9366
BO	-9367
With	-9368
▁Thus	-9369
▁mining	-9370
atin	-9371
nce	-9372
Star	-9373
▁dent	-9374
▁Dub	-9375
jection	-9376
▁expanding	-9377
▁extraordinary	-9378
bled	-9379
▁Gab	-9380
▁libr	-9381
▁residence	-9382
mont	-9383
▁beef	-9384
▁occurs	-9385
▁emotions	-9386
rena	-9387
▁sacr	-9388
twitter	-9389
aware	-9390
unate	-9391
▁cats	-9392
▁toile	-9393
▁golden	-9394
oli	-9395
▁transaction	-9396
▁subscription	-9397
▁journalists	-9398
▁protecting	-9399
ova	-9400
▁fed	-9401
▁greatly	-9402
▁mystery	-9403
▁clicking	-9404
▁Palestinian	-9405
▁haz	-9406
▁complaints	-9407
▁spell	-9408
▁painted	-9409
▁celebrated	-9410
Ne	-9411
▁Much	-9412
.-	-9413
▁employers	-9414
▁flexibility	-9415
▁LGBT	-9416
▁Hills	-9417
▁Days	-9418
visor	-9419
▁seemingly	-9420
▁Phill	-9421
▁Netflix	-9422
iche	-9423
▁COM	-9424
▁creativity	-9425
dem	-9426
▁Advent	-9427
▁deposit	-9428
▁Records	-9429
▁Gulf	-9430
▁tum	-9431
▁Alan	-9432
▁boards	-9433
▁demonstrate	-9434
▁striking	-9435
▁inspect	-9436
▁kilomet	-9437
pread	-9438
▁Customer	-9439
▁Lu	-9440
▁eastern	-9441
▁stadium	-9442
▁venture	-9443
▁Prior	-9444
▁conclusion	-9445
▁somebody	-9446
▁Melbourne	-9447
▁Computer	-9448
▁protocol	-9449
▁shed	-9450
▁Tru	-9451
▁Baby	-9452
▁gate	-9453
▁DI	-9454
▁waves	-9455
▁CC	-9456
▁wage	-9457
covery	-9458
▁organisation	-9459
▁Na	-9460
post	-9461
▁Ice	-9462
▁utility	-9463
gender	-9464
erk	-9465
▁Past	-9466
▁Saint	-9467
▁hiring	-9468
IVE	-9469
ishop	-9470
▁functionality	-9471
▁les	-9472
▁enorm	-9473
▁hunting	-9474
▁Bag	-9475
▁mayor	-9476
▁Website	-9477
▁jury	-9478
▁compliance	-9479
hops	-9480
▁EN	-9481
▁barrel	-9482
onda	-9483
▁disorder	-9484
▁mos	-9485
▁Resources	-9486
▁smoking	-9487
▁conventional	-9488
▁entert	-9489
who	-9490
▁packaging	-9491
ielder	-9492
▁Beh	-9493
itement	-9494
▁actors	-9495
emed	-9496
▁polls	-9497
iating	-9498
was	-9499
====	-9500
▁Magic	-9501
▁Halloween	-9502
athon	-9503
▁asset	-9504
▁ridic	-9505
▁dies	-9506
........	-9507
▁insights	-9508
▁compensation	-9509
▁Stay	-9510
▁slic	-9511
▁Round	-9512
▁automatic	-9513
▁(“	-9514
scale	-9515
▁mild	-9516
▁Alexander	-9517
▁consistently	-9518
▁rape	-9519
▁finishing	-9520
▁stem	-9521
elfare	-9522
▁Belg	-9523
▁negotiations	-9524
▁Golf	-9525
▁licensed	-9526
▁principal	-9527
▁vulnerable	-9528
▁Hal	-9529
▁fears	-9530
▁bom	-9531
ickets	-9532
EST	-9533
▁Metro	-9534
▁meaningful	-9535
kg	-9536
▁fallen	-9537
▁telephone	-9538
▁Whit	-9539
▁wides	-9540
van	-9541
▁Clear	-9542
▁convicted	-9543
▁immigrants	-9544
▁Drug	-9545
mit	-9546
▁Blu	-9547
▁manip	-9548
▁resume	-9549
▁newsletter	-9550
asty	-9551
▁convert	-9552
▁operated	-9553
▁Economic	-9554
▁Sean	-9555
▁eager	-9556
▁Nintendo	-9557
▁romantic	-9558
▁objective	-9559
▁importantly	-9560
udes	-9561
▁lean	-9562
▁generations	-9563
▁checks	-9564
▁Lincoln	-9565
▁Osc	-9566
▁speaks	-9567
▁assigned	-9568
▁homeless	-9569
▁Future	-9570
▁theater	-9571
▁characteristics	-9572
▁Bruce	-9573
▁Flash	-9574
▁Hamilton	-9575
▁sophistic	-9576
▁!	-9577
onom	-9578
▁Title	-9579
istent	-9580
▁vintage	-9581
▁environments	-9582
rep	-9583
▁Tai	-9584
▁honey	-9585
▁tissue	-9586
▁Berlin	-9587
▁concerning	-9588
▁Tell	-9589
▁imper	-9590
urse	-9591
▁instruction	-9592
overs	-9593
▁Coach	-9594
▁petition	-9595
▁belt	-9596
▁nerv	-9597
▁spoken	-9598
▁gonna	-9599
▁Consult	-9600
▁suspected	-9601
▁McK	-9602
▁applying	-9603
ahoo	-9604
uating	-9605
▁Glass	-9606
▁Greece	-9607
▁hearts	-9608
▁advantages	-9609
▁bass	-9610
▁chef	-9611
▁Occ	-9612
criptions	-9613
SC	-9614
▁abroad	-9615
▁Description	-9616
▁Jonathan	-9617
▁engineers	-9618
▁safely	-9619
▁stability	-9620
▁Pick	-9621
▁aver	-9622
▁keys	-9623
▁wider	-9624
▁Must	-9625
▁Pitts	-9626
▁subscribe	-9627
rous	-9628
icipal	-9629
▁Princ	-9630
▁prayer	-9631
▁strip	-9632
▁involvement	-9633
▁roy	-9634
▁cinem	-9635
▁abortion	-9636
▁overnight	-9637
▁Related	-9638
▁Pers	-9639
orship	-9640
town	-9641
rac	-9642
▁attach	-9643
una	-9644
urg	-9645
▁genre	-9646
▁Machine	-9647
▁Products	-9648
▁femin	-9649
▁associate	-9650
▁lip	-9651
▁Hello	-9652
▁ships	-9653
Read	-9654
▁coat	-9655
▁institution	-9656
▁opponents	-9657
there	-9658
▁export	-9659
差数列	-9660
▁wing	-9661
▁trim	-9662
▁等差数列	-9663
▁disag	-9664
▁satisfaction	-9665
▁cancell	-9666
▁Rain	-9667
▁Nature	-9668
▁outcomes	-9669
▁mountains	-9670
▁formula	-9671
orks	-9672
▁sorts	-9673
▁Details	-9674
▁oz	-9675
netic	-9676
▁Tele	-9677
▁girlfriend	-9678
▁hal	-9679
▁responses	-9680
bra	-9681
▁Side	-9682
gree	-9683
▁consecut	-9684
bus	-9685
▁Laure	-9686
▁Single	-9687
▁trigger	-9688
▁Shel	-9689
▁Limited	-9690
▁tweeted	-9691
%)	-9692
▁Generate	-9693
▁merely	-9694
ceeds	-9695
▁Jerem	-9696
▁invite	-9697
only	-9698
▁publishing	-9699
atern	-9700
orious	-9701
▁Section	-9702
▁preview	-9703
▁criteria	-9704
▁Mosc	-9705
▁complim	-9706
▁Graham	-9707
▁oldest	-9708
▁correctly	-9709
wa	-9710
▁”	-9711
▁Hind	-9712
▁gam	-9713
▁thrown	-9714
▁experiencing	-9715
osystem	-9716
▁Hey	-9717
▁fu	-9718
▁scream	-9719
▁collective	-9720
▁Dutch	-9721
▁banned	-9722
▁followers	-9723
iox	-9724
itarian	-9725
emen	-9726
▁strengthen	-9727
▁Patri	-9728
omin	-9729
▁substantial	-9730
KE	-9731
▁letting	-9732
▁console	-9733
▁VR	-9734
arents	-9735
▁reads	-9736
▁Leader	-9737
▁legacy	-9738
▁Sciences	-9739
▁Sud	-9740
▁[...]	-9741
estone	-9742
▁Clark	-9743
▁circle	-9744
▁punish	-9745
fund	-9746
▁mun	-9747
▁nobody	-9748
▁Roberts	-9749
Pe	-9750
▁critics	-9751
▁evaluation	-9752
▁directions	-9753
▁Fant	-9754
interest	-9755
▁headquarters	-9756
pted	-9757
▁Ath	-9758
▁earnings	-9759
▁babies	-9760
▁satellite	-9761
SW	-9762
▁Constitution	-9763
▁diabetes	-9764
▁displays	-9765
▁Vin	-9766
▁Manh	-9767
▁Cart	-9768
▁hospitals	-9769
pection	-9770
▁contributed	-9771
▁lineup	-9772
Not	-9773
open	-9774
Te	-9775
商品	-9776
▁threw	-9777
▁toys	-9778
▁Alaska	-9779
▁movements	-9780
▁workplace	-9781
▁brut	-9782
▁Charlie	-9783
▁nominee	-9784
▁Exchange	-9785
▁Phoenix	-9786
▁cannabis	-9787
▁spectacular	-9788
▁incent	-9789
▁heating	-9790
▁Finance	-9791
terior	-9792
▁Ave	-9793
▁regulation	-9794
="	-9795
▁profits	-9796
▁impression	-9797
PL	-9798
▁sleeping	-9799
▁Scottish	-9800
▁accompan	-9801
ctic	-9802
▁Text	-9803
orses	-9804
▁moral	-9805
▁Harvard	-9806
riculum	-9807
ropri	-9808
agger	-9809
▁meters	-9810
▁attempting	-9811
▁hyp	-9812
asion	-9813
▁toler	-9814
▁overlook	-9815
▁touchdown	-9816
▁journalist	-9817
▁pollution	-9818
CN	-9819
UD	-9820
▁sup	-9821
▁wooden	-9822
▁genetic	-9823
assador	-9824
▁convenience	-9825
lad	-9826
angel	-9827
▁productivity	-9828
▁Electric	-9829
▁tries	-9830
▁Revolution	-9831
▁cited	-9832
▁exclusively	-9833
▁Hous	-9834
▁whilst	-9835
aya	-9836
▁engines	-9837
▁networking	-9838
arrass	-9839
itis	-9840
ammed	-9841
▁sits	-9842
▁catalog	-9843
▁employer	-9844
▁Creative	-9845
▁scar	-9846
▁Anyone	-9847
▁Freedom	-9848
▁twist	-9849
▁actively	-9850
CAA	-9851
▁Lic	-9852
ECT	-9853
elligent	-9854
▁emotion	-9855
▁stamp	-9856
OG	-9857
▁Nev	-9858
▁stocks	-9859
▁cabinet	-9860
▁disappointed	-9861
▁Bab	-9862
▁container	-9863
▁discussing	-9864
▁purchases	-9865
▁Pear	-9866
▁chip	-9867
▁Had	-9868
▁healing	-9869
eld	-9870
door	-9871
▁worn	-9872
▁completion	-9873
ogy	-9874
lando	-9875
▁Shipping	-9876
▁Gil	-9877
▁survival	-9878
然后	-9879
bn	-9880
▁democracy	-9881
▁Speed	-9882
▁flower	-9883
▁Song	-9884
iah	-9885
?)	-9886
rat	-9887
TP	-9888
iy	-9889
ppy	-9890
▁Deep	-9891
▁Queens	-9892
date	-9893
▁Release	-9894
▁condem	-9895
▁epic	-9896
▁span	-9897
ampa	-9898
▁Self	-9899
▁consecutive	-9900
▁harass	-9901
stop	-9902
immer	-9903
▁Salt	-9904
oper	-9905
▁keen	-9906
▁fought	-9907
▁ordinary	-9908
oning	-9909
▁divide	-9910
▁unemployment	-9911
▁narrative	-9912
ended	-9913
▁Turkish	-9914
▁sour	-9915
▁acquisition	-9916
leans	-9917
oons	-9918
▁oblig	-9919
▁ratings	-9920
INGTON	-9921
▁behaviour	-9922
oned	-9923
▁Explore	-9924
▁hopefully	-9925
istol	-9926
uates	-9927
▁tremend	-9928
▁Host	-9929
▁astron	-9930
oa	-9931
acter	-9932
aved	-9933
▁screw	-9934
▁Sweden	-9935
▁Recently	-9936
▁pron	-9937
▁stops	-9938
uild	-9939
▁bitcoin	-9940
cour	-9941
▁colours	-9942
rection	-9943
▁layers	-9944
▁overcome	-9945
▁opponent	-9946
▁{	-9947
▁Weight	-9948
▁jewelry	-9949
▁bail	-9950
▁substance	-9951
DAY	-9952
alia	-9953
▁Heat	-9954
▁settled	-9955
▁unpre	-9956
▁Method	-9957
▁Mississ	-9958
▁Study	-9959
▁summary	-9960
▁Li	-9961
▁veterans	-9962
▁Raj	-9963
ILL	-9964
▁elder	-9965
build	-9966
▁Sale	-9967
▁Rome	-9968
ITY	-9969
ugg	-9970
▁Flow	-9971
▁jur	-9972
Do	-9973
▁disrupt	-9974
▁intellectual	-9975
omach	-9976
▁Grant	-9977
▁Ott	-9978
▁pul	-9979
▁fiber	-9980
▁widespread	-9981
▁Jews	-9982
▁Trad	-9983
▁hockey	-9984
▁overseas	-9985
hol	-9986
▁bust	-9987
▁elegant	-9988
▁Cole	-9989
▁Putin	-9990
▁Veter	-9991
rary	-9992
▁supplement	-9993
uman	-9994
▁Communications	-9995
▁shapes	-9996
▁throwing	-9997
▁poster	-9998
▁auction	-9999
▁grateful	-10000
▁Nothing	-10001
▁Industry	-10002
bie	-10003
bul	-10004
▁Gord	-10005
▁pizza	-10006
▁先	-10007
▁Mit	-10008
▁impressed	-10009
ogs	-10010
ICE	-10011
ethe	-10012
▁Perry	-10013
papers	-10014
▁custody	-10015
▁texture	-10016
aund	-10017
esc	-10018
▁Malays	-10019
▁reviewed	-10020
▁crown	-10021
▁Features	-10022
▁Intelligence	-10023
▁Crit	-10024
▁blogs	-10025
▁Simply	-10026
▁Christians	-10027
▁Dor	-10028
▁Kennedy	-10029
▁donation	-10030
▁instantly	-10031
▁BB	-10032
")	-10033
ni	-10034
▁Send	-10035
wall	-10036
eters	-10037
▁SD	-10038
▁sum	-10039
▁Appro	-10040
aki	-10041
ounding	-10042
▁Moscow	-10043
▁accord	-10044
AG	-10045
▁Mind	-10046
▁employed	-10047
esty	-10048
▁captain	-10049
▁Hit	-10050
TML	-10051
▁unp	-10052
▁powered	-10053
▁secondary	-10054
▁ALL	-10055
▁frequent	-10056
▁proposals	-10057
Sp	-10058
▁Getting	-10059
▁drew	-10060
▁funded	-10061
▁Christopher	-10062
itty	-10063
inals	-10064
▁deputy	-10065
▁initiatives	-10066
▁Private	-10067
▁appearances	-10068
incess	-10069
organ	-10070
▁File	-10071
after	-10072
▁knife	-10073
▁approached	-10074
utor	-10075
▁scenario	-10076
▁renewable	-10077
▁neighbors	-10078
▁Player	-10079
▁developments	-10080
▁Nat	-10081
▁establishment	-10082
▁greet	-10083
▁HP	-10084
acco	-10085
▁Move	-10086
▁citizen	-10087
▁chemicals	-10088
▁Ga	-10089
pled	-10090
▁locked	-10091
▁abilities	-10092
▁Unit	-10093
▁Reserve	-10094
▁wrest	-10095
▁stupid	-10096
cular	-10097
▁vert	-10098
▁Perfect	-10099
▁processor	-10100
▁fascinating	-10101
▁regulatory	-10102
rape	-10103
FF	-10104
itol	-10105
▁eliminate	-10106
▁wise	-10107
▁Years	-10108
fish	-10109
▁Orleans	-10110
▁DE	-10111
▁ink	-10112
▁Body	-10113
▁conce	-10114
▁credits	-10115
Com	-10116
▁ISIS	-10117
▁portra	-10118
ught	-10119
elve	-10120
idal	-10121
▁Poly	-10122
▁quotes	-10123
▁engineer	-10124
▁excitement	-10125
Go	-10126
▁anger	-10127
uminum	-10128
▁wildlife	-10129
ijing	-10130
▁Making	-10131
annon	-10132
herry	-10133
▁Cancer	-10134
▁rubber	-10135
▁cig	-10136
▁Antonio	-10137
▁pursu	-10138
▁terrorism	-10139
▁convention	-10140
▁nervous	-10141
▁BR	-10142
airy	-10143
▁adequ	-10144
▁hardly	-10145
cor	-10146
▁Him	-10147
▁deserve	-10148
dri	-10149
ige	-10150
▁Indones	-10151
ultane	-10152
held	-10153
▁concluded	-10154
iances	-10155
▁Amend	-10156
vity	-10157
▁Dim	-10158
▁jumped	-10159
enter	-10160
▁Wy	-10161
ierce	-10162
▁rounds	-10163
▁periods	-10164
▁Content	-10165
▁passenger	-10166
▁adj	-10167
ockets	-10168
▁strikes	-10169
urities	-10170
▁exit	-10171
▁coalition	-10172
▁affects	-10173
▁investing	-10174
▁lemon	-10175
▁slee	-10176
▁elite	-10177
▁brush	-10178
▁deadly	-10179
▁grid	-10180
▁indoor	-10181
▁figured	-10182
▁firearm	-10183
▁Imp	-10184
▁Dick	-10185
▁matching	-10186
rock	-10187
▁seam	-10188
▁embed	-10189
▁remarks	-10190
▁bottles	-10191
▁Manhattan	-10192
phan	-10193
dep	-10194
▁assembly	-10195
▁heritage	-10196
▁ratio	-10197
▁measured	-10198
▁shipped	-10199
▁okay	-10200
▁sponsored	-10201
arts	-10202
▁Wolf	-10203
▁ladies	-10204
▁fastest	-10205
eness	-10206
▁modified	-10207
▁Later	-10208
▁beliefs	-10209
▁possibilities	-10210
▁codes	-10211
▁scope	-10212
▁toxic	-10213
▁chopped	-10214
▁HIV	-10215
outing	-10216
Cont	-10217
▁Cameron	-10218
▁homeown	-10219
▁Ali	-10220
▁snap	-10221
▁inev	-10222
itches	-10223
▁Bird	-10224
▁outr	-10225
▁ranks	-10226
▁landing	-10227
▁restore	-10228
▁Questions	-10229
▁yoga	-10230
▁satisfied	-10231
▁Marine	-10232
▁amongst	-10233
▁reception	-10234
▁Girls	-10235
▁walks	-10236
▁celebrating	-10237
▁Employ	-10238
▁cooperation	-10239
▁towns	-10240
cedented	-10241
▁charging	-10242
atoes	-10243
▁dialogue	-10244
▁Double	-10245
gi	-10246
▁contacted	-10247
▁nationwide	-10248
▁Dak	-10249
▁Exam	-10250
▁muscles	-10251
▁bot	-10252
charge	-10253
▁laser	-10254
▁layout	-10255
▁Reviews	-10256
.....	-10257
PT	-10258
▁heaven	-10259
mic	-10260
▁Blood	-10261
dis	-10262
▁Virt	-10263
▁surely	-10264
▁hes	-10265
acles	-10266
▁screening	-10267
创建	-10268
▁Hug	-10269
bean	-10270
mother	-10271
▁prosec	-10272
▁courtesy	-10273
▁Complete	-10274
▁bell	-10275
▁Challenge	-10276
▁discrimination	-10277
▁Warren	-10278
hr	-10279
iffs	-10280
▁Gene	-10281
▁vocal	-10282
ricane	-10283
▁Orlando	-10284
▁refugees	-10285
▁graduated	-10286
▁failing	-10287
▁proport	-10288
ALL	-10289
▁Nik	-10290
▁massage	-10291
▁encouraging	-10292
shot	-10293
▁Hig	-10294
▁continu	-10295
ippi	-10296
▁Server	-10297
▁Beijing	-10298
▁curious	-10299
aid	-10300
▁beloved	-10301
via	-10302
▁alike	-10303
▁mysterious	-10304
▁Ta	-10305
▁embarrass	-10306
▁Wat	-10307
▁cabin	-10308
▁repeat	-10309
▁adoption	-10310
adesh	-10311
▁thro	-10312
▁colleg	-10313
▁Pant	-10314
▁Until	-10315
▁filing	-10316
▁tale	-10317
▁convin	-10318
▁Rail	-10319
▁Comments	-10320
▁prospects	-10321
▁Imag	-10322
▁Kitchen	-10323
▁sexy	-10324
▁incidents	-10325
mind	-10326
aha	-10327
acon	-10328
▁stomach	-10329
▁Solutions	-10330
ogan	-10331
▁wisdom	-10332
▁Anne	-10333
inst	-10334
▁leaf	-10335
abs	-10336
olitan	-10337
▁Third	-10338
▁difficulty	-10339
▁corporations	-10340
▁gene	-10341
plus	-10342
ompson	-10343
▁bacteria	-10344
atching	-10345
ropical	-10346
▁Within	-10347
▁odds	-10348
▁Inv	-10349
▁picks	-10350
▁Alliance	-10351
▁ecosystem	-10352
▁Photos	-10353
▁testim	-10354
▁Highway	-10355
▁Kings	-10356
hot	-10357
▁spotted	-10358
▁Dri	-10359
▁Yan	-10360
▁Celebr	-10361
▁Vietnam	-10362
▁BC	-10363
▁maker	-10364
ested	-10365
iatric	-10366
hemat	-10367
▁resign	-10368
▁Install	-10369
ESS	-10370
▁Stewart	-10371
▁Tokyo	-10372
▁affairs	-10373
▁delivers	-10374
▁Mini	-10375
Every	-10376
▁balls	-10377
apy	-10378
▁Pittsburgh	-10379
▁Fresh	-10380
▁dub	-10381
▁certificate	-10382
▁Lawrence	-10383
check	-10384
▁Adams	-10385
▁acres	-10386
Me	-10387
▁produces	-10388
oting	-10389
▁McCain	-10390
atar	-10391
▁fleet	-10392
▁Ton	-10393
▁insert	-10394
▁shelter	-10395
rup	-10396
▁accounting	-10397
father	-10398
▁Prot	-10399
▁fingers	-10400
▁retailers	-10401
▁fert	-10402
▁mouse	-10403
▁ML	-10404
▁Mort	-10405
beat	-10406
▁Prim	-10407
section	-10408
▁outfit	-10409
▁preced	-10410
Up	-10411
],	-10412
▁principle	-10413
arth	-10414
▁dressed	-10415
▁consultation	-10416
▁Events	-10417
▁rush	-10418
****	-10419
▁Ped	-10420
▁Mission	-10421
▁Susan	-10422
▁entrepreneurs	-10423
store	-10424
▁Row	-10425
▁divorce	-10426
▁trusted	-10427
▁Jennifer	-10428
gins	-10429
)||	-10430
onut	-10431
▁intrig	-10432
▁demanding	-10433
▁Ale	-10434
▁Cars	-10435
ishers	-10436
▁olive	-10437
graduate	-10438
▁cra	-10439
▁enormous	-10440
▁interaction	-10441
▁Fle	-10442
▁loaded	-10443
▁Dean	-10444
▁Planning	-10445
▁referring	-10446
irates	-10447
▁tradem	-10448
▁Gh	-10449
▁Hop	-10450
▁annoy	-10451
▁stepped	-10452
▁por	-10453
▁absence	-10454
▁mathemat	-10455
▁Convention	-10456
ilation	-10457
▁versus	-10458
▁ft	-10459
ieve	-10460
▁Ow	-10461
owered	-10462
SL	-10463
rain	-10464
ifier	-10465
ussion	-10466
▁Mand	-10467
▁habits	-10468
▁Argent	-10469
▁independence	-10470
▁Block	-10471
▁Manufact	-10472
▁executives	-10473
otype	-10474
▁Cool	-10475
▁computing	-10476
▁respective	-10477
▁assists	-10478
https	-10479
▁documentation	-10480
▁aest	-10481
gets	-10482
▁attorneys	-10483
▁Cos	-10484
▁Lane	-10485
▁classified	-10486
agic	-10487
▁Index	-10488
▁yours	-10489
▁editing	-10490
▁Adm	-10491
▁artwork	-10492
▁removing	-10493
▁endless	-10494
assion	-10495
▁physically	-10496
▁Beat	-10497
▁True	-10498
▁bicy	-10499
▁arguments	-10500
▁Medic	-10501
▁Youth	-10502
▁Advanced	-10503
▁spectrum	-10504
▁encry	-10505
▁gains	-10506
▁EV	-10507
▁magical	-10508
▁happiness	-10509
▁bump	-10510
ernand	-10511
▁corruption	-10512
▁refers	-10513
▁frequency	-10514
▁module	-10515
ipt	-10516
▁Ru	-10517
▁lobby	-10518
▁nutrition	-10519
ridge	-10520
▁Tes	-10521
▁Large	-10522
otive	-10523
▁judges	-10524
▁Captain	-10525
▁lying	-10526
▁cheaper	-10527
▁Originally	-10528
akh	-10529
▁transit	-10530
▁slide	-10531
▁Thompson	-10532
▁destruction	-10533
▁investigators	-10534
▁Trail	-10535
▁reserve	-10536
▁demonstrated	-10537
ration	-10538
▁hub	-10539
▁suspects	-10540
▁pets	-10541
rot	-10542
▁vibrant	-10543
▁expecting	-10544
Qu	-10545
▁grace	-10546
▁distingu	-10547
▁launching	-10548
▁PL	-10549
▁Charlotte	-10550
▁Aaron	-10551
▁extrem	-10552
oft	-10553
▁Nash	-10554
OB	-10555
breaking	-10556
▁Performance	-10557
▁impacts	-10558
▁conservation	-10559
▁Tea	-10560
▁robust	-10561
▁kiss	-10562
▁gross	-10563
▁Portug	-10564
▁Pent	-10565
▁resolve	-10566
rix	-10567
▁Stars	-10568
ORK	-10569
▁nail	-10570
▁toy	-10571
▁mirror	-10572
enz	-10573
▁bankrupt	-10574
▁Duke	-10575
▁backup	-10576
▁Nort	-10577
].	-10578
▁Gas	-10579
olves	-10580
▁makeup	-10581
▁Sad	-10582
effect	-10583
▁compact	-10584
▁fib	-10585
aco	-10586
Station	-10587
▁Oakland	-10588
▁Overall	-10589
▁diamond	-10590
▁completing	-10591
▁operational	-10592
▁Tree	-10593
▁overt	-10594
▁teaspoon	-10595
▁theft	-10596
▁legendary	-10597
▁joke	-10598
sl	-10599
▁Mos	-10600
▁User	-10601
▁finest	-10602
▁Lad	-10603
▁NCAA	-10604
▁Maine	-10605
▁vendors	-10606
▁suspension	-10607
▁Furthermore	-10608
icut	-10609
▁Louisiana	-10610
▁defence	-10611
▁reverse	-10612
▁grocery	-10613
▁pour	-10614
▁consent	-10615
▁durable	-10616
▁Amy	-10617
▁Fig	-10618
▁Agr	-10619
▁abund	-10620
▁Indeed	-10621
▁Integr	-10622
▁Nether	-10623
▁Arsenal	-10624
▁outlets	-10625
▁WASH	-10626
▁Benef	-10627
▁inaug	-10628
theless	-10629
▁enemies	-10630
▁portray	-10631
▁confused	-10632
otion	-10633
▁Bond	-10634
▁Peace	-10635
▁lately	-10636
▁abandoned	-10637
▁fel	-10638
▁wheels	-10639
▁Nut	-10640
NS	-10641
bian	-10642
▁Job	-10643
rison	-10644
▁frozen	-10645
▁organisations	-10646
ACK	-10647
party	-10648
▁Buck	-10649
▁Fish	-10650
▁vine	-10651
▁seeks	-10652
▁duties	-10653
▁HR	-10654
▁Cou	-10655
▁anybody	-10656
▁inventory	-10657
uther	-10658
▁carries	-10659
▁Obs	-10660
▁SEO	-10661
▁occasionally	-10662
die	-10663
▁conj	-10664
▁Compet	-10665
▁sensor	-10666
▁booking	-10667
▁Krist	-10668
▁quoted	-10669
▁Nevada	-10670
▁circuit	-10671
▁bless	-10672
▁departments	-10673
▁equity	-10674
▁Carter	-10675
▁applies	-10676
▁beating	-10677
oca	-10678
▁admission	-10679
▁convinced	-10680
cend	-10681
▁Writing	-10682
▁tu	-10683
▁HTML	-10684
▁teens	-10685
about	-10686
▁Aqu	-10687
▁Han	-10688
▁suck	-10689
▁beans	-10690
▁Comment	-10691
▁unprecedented	-10692
▁dict	-10693
▁foss	-10694
▁overs	-10695
▁Chrome	-10696
▁desert	-10697
home	-10698
▁Architect	-10699
▁rolled	-10700
CL	-10701
conf	-10702
abling	-10703
uan	-10704
hard	-10705
▁pione	-10706
▁sophisticated	-10707
NY	-10708
mart	-10709
▁Categ	-10710
▁medication	-10711
▁Verm	-10712
▁examine	-10713
▁ethnic	-10714
▁reply	-10715
▁simultane	-10716
SU	-10717
▁qualify	-10718
urches	-10719
▁Autom	-10720
▁peaceful	-10721
▁Tan	-10722
▁Cape	-10723
inge	-10724
▁buzz	-10725
▁Valent	-10726
▁deliber	-10727
▁algorithm	-10728
▁Better	-10729
▁operators	-10730
VP	-10731
▁Style	-10732
▁Schools	-10733
yler	-10734
▁rib	-10735
▁pulling	-10736
▁Nich	-10737
▁WordPress	-10738
▁Sov	-10739
▁Solar	-10740
ocur	-10741
▁fighters	-10742
▁balanced	-10743
▁Say	-10744
▁Wayne	-10745
▁Mississippi	-10746
even	-10747
http	-10748
olid	-10749
▁Organization	-10750
▁Wire	-10751
▁workshops	-10752
▁progressive	-10753
▁Hawaii	-10754
▁beneficial	-10755
▁Russell	-10756
▁Fal	-10757
▁hoped	-10758
▁compos	-10759
▁targeting	-10760
▁blocked	-10761
▁analyst	-10762
▁contents	-10763
cies	-10764
▁instruments	-10765
IO	-10766
▁Pod	-10767
▁shadow	-10768
▁Chem	-10769
▁Jerry	-10770
▁carrier	-10771
▁cogn	-10772
▁humanity	-10773
▁Independent	-10774
sis	-10775
▁collecting	-10776
▁Gib	-10777
▁Resort	-10778
▁assemb	-10779
▁Grad	-10780
author	-10781
▁integrity	-10782
▁Chap	-10783
▁transmission	-10784
▁Esc	-10785
herent	-10786
▁locally	-10787
fa	-10788
▁CT	-10789
▁owns	-10790
▁rehab	-10791
Ind	-10792
▁mold	-10793
▁Prep	-10794
▁publish	-10795
▁promising	-10796
▁Der	-10797
▁Compan	-10798
▁competing	-10799
arted	-10800
anches	-10801
▁Original	-10802
▁scandal	-10803
▁connecting	-10804
ping	-10805
hesis	-10806
▁SO	-10807
▁synd	-10808
itched	-10809
▁revel	-10810
▁indicates	-10811
▁centuries	-10812
apper	-10813
▁tent	-10814
▁Excell	-10815
▁skilled	-10816
▁passage	-10817
▁tear	-10818
▁pants	-10819
▁activist	-10820
chell	-10821
▁seventh	-10822
mad	-10823
▁align	-10824
▁Khan	-10825
utical	-10826
▁antib	-10827
▁administrative	-10828
ounge	-10829
bage	-10830
▁Philippines	-10831
aux	-10832
▁Restaur	-10833
INE	-10834
▁decrease	-10835
▁summit	-10836
知识	-10837
log	-10838
osex	-10839
▁ta	-10840
eneath	-10841
项目	-10842
usalem	-10843
▁Diamond	-10844
▁anticipated	-10845
Oh	-10846
▁Murray	-10847
▁provision	-10848
▁requiring	-10849
ori	-10850
▁BL	-10851
▁Jen	-10852
▁tube	-10853
▁Tampa	-10854
roduct	-10855
▁delighted	-10856
ims	-10857
▁transf	-10858
▁toll	-10859
xygen	-10860
▁stylish	-10861
▁Relations	-10862
▁Wa	-10863
▁ramp	-10864
piracy	-10865
▁Rather	-10866
▁exercises	-10867
▁subsequent	-10868
▁Pain	-10869
▁Empire	-10870
▁exploration	-10871
▁emphasis	-10872
▁evaluate	-10873
▁diagnosed	-10874
▁murd	-10875
vo	-10876
▁Fix	-10877
▁cous	-10878
▁rook	-10879
df	-10880
▁salad	-10881
▁defect	-10882
▁HERE	-10883
▁nick	-10884
itate	-10885
▁receiver	-10886
▁template	-10887
▁Nob	-10888
▁landed	-10889
▁racial	-10890
gly	-10891
tical	-10892
▁compatible	-10893
cribed	-10894
▁Jeremy	-10895
▁showcase	-10896
▁Additional	-10897
▁hybrid	-10898
▁startup	-10899
ASE	-10900
▁Sweet	-10901
range	-10902
▁hunt	-10903
▁Left	-10904
amic	-10905
▁wrap	-10906
▁cooked	-10907
▁manif	-10908
▁stere	-10909
▁tears	-10910
▁occasions	-10911
▁certification	-10912
▁Connecticut	-10913
▁spokesperson	-10914
▁bio	-10915
▁IV	-10916
ormal	-10917
▁collections	-10918
▁Abb	-10919
▁Bor	-10920
▁angle	-10921
▁Ky	-10922
有多少	-10923
storm	-10924
▁Gordon	-10925
iar	-10926
!!!!	-10927
▁overview	-10928
▁Wine	-10929
▁dirt	-10930
▁Dear	-10931
▁oral	-10932
▁paralle	-10933
▁nursing	-10934
▁tune	-10935
▁Bernie	-10936
▁margin	-10937
▁musicians	-10938
mo	-10939
ugs	-10940
ocus	-10941
▁accomplished	-10942
▁immune	-10943
▁chap	-10944
ervice	-10945
▁Bring	-10946
▁dancing	-10947
▁welfare	-10948
EMENT	-10949
▁blast	-10950
()	-10951
▁toss	-10952
▁makers	-10953
ummy	-10954
▁releasing	-10955
▁iT	-10956
▁Joy	-10957
▁trucks	-10958
tech	-10959
▁punch	-10960
▁Course	-10961
aria	-10962
▁soup	-10963
▁Legal	-10964
oded	-10965
▁Fat	-10966
▁Moreover	-10967
▁Too	-10968
▁drops	-10969
▁beta	-10970
gal	-10971
▁nomination	-10972
▁competitors	-10973
▁Activ	-10974
▁Record	-10975
▁controversy	-10976
▁curriculum	-10977
▁Stra	-10978
▁Luke	-10979
▁WASHINGTON	-10980
▁dispute	-10981
▁Amendment	-10982
lar	-10983
▁Lisa	-10984
▁tender	-10985
▁Crime	-10986
▁countless	-10987
▁intervention	-10988
amous	-10989
▁("	-10990
▁winds	-10991
▁Cell	-10992
▁Movie	-10993
burn	-10994
selling	-10995
▁Wright	-10996
▁WE	-10997
▁operator	-10998
▁Tower	-10999
▁Construction	-11000
track	-11001
▁Others	-11002
▁URL	-11003
▁Climate	-11004
▁personalized	-11005
▁dying	-11006
▁formation	-11007
▁deficit	-11008
▁audiences	-11009
Can	-11010
▁tours	-11011
▁Morning	-11012
▁sectors	-11013
WS	-11014
▁designing	-11015
▁underground	-11016
▁BY	-11017
▁Hamp	-11018
▁precious	-11019
▁Yahoo	-11020
▁steam	-11021
▁vegan	-11022
▁Abd	-11023
▁Ku	-11024
▁mit	-11025
aceutical	-11026
▁trials	-11027
▁legislative	-11028
NT	-11029
▁therm	-11030
acre	-11031
liest	-11032
▁Easter	-11033
aa	-11034
▁Netherlands	-11035
▁Ay	-11036
▁ceiling	-11037
▁Kate	-11038
▁speeds	-11039
▁enhanced	-11040
▁kicked	-11041
nut	-11042
comed	-11043
▁buttons	-11044
▁struggled	-11045
addy	-11046
▁steady	-11047
ching	-11048
gie	-11049
▁Jerusalem	-11050
▁Springs	-11051
kind	-11052
▁Larry	-11053
▁Dragon	-11054
▁loop	-11055
iology	-11056
▁Madrid	-11057
▁inflation	-11058
▁violation	-11059
▁mechanical	-11060
▁Incre	-11061
▁intim	-11062
▁sanctions	-11063
▁references	-11064
semble	-11065
▁Urban	-11066
▁Birth	-11067
▁march	-11068
▁unclear	-11069
▁neighbour	-11070
isode	-11071
▁cycl	-11072
▁rated	-11073
▁Similar	-11074
▁Rab	-11075
▁Montreal	-11076
fly	-11077
pur	-11078
▁workout	-11079
▁diagnosis	-11080
▁Capitol	-11081
icked	-11082
▁Transportation	-11083
▁hill	-11084
bes	-11085
lan	-11086
▁Roc	-11087
▁prest	-11088
▁EP	-11089
▁MLS	-11090
▁Anna	-11091
▁Treas	-11092
▁apple	-11093
▁urged	-11094
▁courage	-11095
?!	-11096
▁SEC	-11097
rated	-11098
▁drunk	-11099
▁FO	-11100
▁tremendous	-11101
arest	-11102
▁implications	-11103
▁acquire	-11104
▁financing	-11105
card	-11106
pert	-11107
▁straw	-11108
▁directors	-11109
▁bulk	-11110
▁Getty	-11111
▁ranking	-11112
▁Property	-11113
▁ax	-11114
▁publisher	-11115
▁suggesting	-11116
▁Arena	-11117
olas	-11118
▁ears	-11119
▁quit	-11120
▁anch	-11121
▁Nelson	-11122
▁unveiled	-11123
▁surviv	-11124
outheast	-11125
▁designated	-11126
▁subtle	-11127
▁voices	-11128
▁Ec	-11129
▁artistic	-11130
▁inex	-11131
▁reflects	-11132
▁bin	-11133
▁wrapped	-11134
”)	-11135
▁Maria	-11136
▁patent	-11137
▁repairs	-11138
▁marine	-11139
▁Olympics	-11140
▁processed	-11141
▁airline	-11142
▁analysts	-11143
▁Commissioner	-11144
▁Plant	-11145
igenous	-11146
▁lightweight	-11147
oyd	-11148
▁sentenced	-11149
▁Ka	-11150
▁SW	-11151
ateur	-11152
urrent	-11153
▁suppliers	-11154
▁forgotten	-11155
▁`	-11156
▁ware	-11157
▁Besides	-11158
▁Hell	-11159
▁killer	-11160
ationally	-11161
▁lung	-11162
▁tatt	-11163
▁productive	-11164
▁Cold	-11165
▁Inside	-11166
▁settle	-11167
▁minority	-11168
▁Aw	-11169
▁Ian	-11170
▁allies	-11171
▁PlayStation	-11172
enged	-11173
▁Altern	-11174
▁carpet	-11175
▁bullet	-11176
These	-11177
▁lasting	-11178
dam	-11179
▁disabled	-11180
onz	-11181
▁Rat	-11182
▁innings	-11183
▁Hunter	-11184
▁constructed	-11185
cal	-11186
▁Studios	-11187
▁districts	-11188
▁ultra	-11189
▁routes	-11190
▁Robinson	-11191
▁Luck	-11192
▁adopt	-11193
▁login	-11194
▁favorites	-11195
MI	-11196
▁rif	-11197
▁creatures	-11198
▁Target	-11199
Im	-11200
thur	-11201
ancell	-11202
▁endorse	-11203
▁Bou	-11204
▁representation	-11205
▁Stop	-11206
▁Arabia	-11207
▁handy	-11208
▁solely	-11209
▁creator	-11210
▁scientist	-11211
▁grey	-11212
arently	-11213
▁Animal	-11214
▁Results	-11215
▁Campbell	-11216
▁jer	-11217
▁Pink	-11218
▁insect	-11219
▁entries	-11220
▁thrilled	-11221
speed	-11222
▁jazz	-11223
▁harvest	-11224
▁realistic	-11225
DC	-11226
xit	-11227
ollar	-11228
azed	-11229
gate	-11230
erver	-11231
▁ballot	-11232
roph	-11233
▁ME	-11234
oppers	-11235
▁survived	-11236
FO	-11237
▁Fro	-11238
▁Starting	-11239
▁boyfriend	-11240
▁inspire	-11241
forward	-11242
▁annually	-11243
▁Anyway	-11244
▁fut	-11245
rying	-11246
umble	-11247
▁toilet	-11248
▁enabled	-11249
▁accommodation	-11250
onies	-11251
alg	-11252
▁hood	-11253
▁bikes	-11254
▁deter	-11255
disc	-11256
▁Griff	-11257
▁sequence	-11258
opt	-11259
▁Benn	-11260
▁Boe	-11261
▁Spot	-11262
▁signals	-11263
▁rab	-11264
▁generous	-11265
eb	-11266
▁bout	-11267
▁expense	-11268
▁transformation	-11269
ipedia	-11270
▁refrig	-11271
fare	-11272
▁judgment	-11273
▁operates	-11274
▁shit	-11275
fielder	-11276
▁careers	-11277
ader	-11278
▁dil	-11279
perform	-11280
▁complement	-11281
▁accommodate	-11282
▁Coal	-11283
▁floors	-11284
▁advocates	-11285
walk	-11286
▁underlying	-11287
▁Domin	-11288
▁ignore	-11289
▁provin	-11290
▁explaining	-11291
urious	-11292
hill	-11293
▁Together	-11294
ppers	-11295
▁Language	-11296
cat	-11297
necess	-11298
▁configuration	-11299
▁Anti	-11300
▁continuous	-11301
▁universal	-11302
▁differently	-11303
▁threatening	-11304
▁objectives	-11305
▁Cash	-11306
▁horses	-11307
oven	-11308
▁athletic	-11309
▁motivated	-11310
▁cord	-11311
▁enroll	-11312
oust	-11313
▁Guardian	-11314
▁defeated	-11315
iper	-11316
acted	-11317
▁fruits	-11318
▁knock	-11319
▁render	-11320
▁crop	-11321
▁horm	-11322
▁timing	-11323
▁stopping	-11324
omes	-11325
▁pad	-11326
aundry	-11327
▁Fight	-11328
▁Warner	-11329
bec	-11330
▁Born	-11331
▁leak	-11332
▁worship	-11333
gov	-11334
▁Address	-11335
▁psychological	-11336
nered	-11337
shirt	-11338
▁painful	-11339
▁Mas	-11340
▁revers	-11341
good	-11342
alties	-11343
iva	-11344
▁Oxford	-11345
▁participated	-11346
▁wishes	-11347
▁Gill	-11348
agu	-11349
eda	-11350
vious	-11351
ouses	-11352
▁Dougl	-11353
▁Register	-11354
wind	-11355
▁sheets	-11356
▁accompanied	-11357
arma	-11358
▁Prize	-11359
▁CM	-11360
▁Gay	-11361
▁tourism	-11362
▁Thanksgiving	-11363
ommy	-11364
▁Bath	-11365
▁Batman	-11366
▁Between	-11367
▁longest	-11368
▁welcomed	-11369
▁Fu	-11370
▁edges	-11371
▁fatal	-11372
▁Kick	-11373
▁earning	-11374
▁attracted	-11375
▁abstract	-11376
Getty	-11377
▁THIS	-11378
western	-11379
hist	-11380
▁Oscar	-11381
▁dirty	-11382
▁inbox	-11383
▁clinic	-11384
hero	-11385
▁drain	-11386
▁fulfill	-11387
▁backing	-11388
▁Giants	-11389
▁Consider	-11390
▁libraries	-11391
▁Py	-11392
stock	-11393
▁riders	-11394
FS	-11395
Or	-11396
erald	-11397
▁Roger	-11398
▁Track	-11399
▁cheer	-11400
▁Soviet	-11401
▁Warri	-11402
aus	-11403
▁CIA	-11404
▁Hung	-11405
▁labels	-11406
▁Ub	-11407
▁cub	-11408
▁jet	-11409
attered	-11410
▁obl	-11411
RO	-11412
May	-11413
▁McDonald	-11414
ARD	-11415
fortable	-11416
▁tire	-11417
▁earthqu	-11418
▁da	-11419
▁Got	-11420
▁Hus	-11421
▁alien	-11422
▁thoroughly	-11423
ITH	-11424
▁dash	-11425
▁tourists	-11426
▁Storm	-11427
▁Lions	-11428
▁Terms	-11429
▁advised	-11430
▁memorable	-11431
▁retain	-11432
▁coron	-11433
▁tennis	-11434
▁Close	-11435
▁bund	-11436
▁fabulous	-11437
PI	-11438
ean	-11439
▁Mall	-11440
▁dropping	-11441
▁assured	-11442
▁attendance	-11443
amon	-11444
▁bite	-11445
▁iTunes	-11446
▁Amb	-11447
▁Resear	-11448
cos	-11449
▁cruise	-11450
▁IC	-11451
▁Todd	-11452
▁Laura	-11453
▁neutral	-11454
▁sid	-11455
▁Rice	-11456
▁cultures	-11457
ivals	-11458
▁refres	-11459
liminary	-11460
NE	-11461
▁headlines	-11462
▁Posts	-11463
▁suite	-11464
▁secured	-11465
enities	-11466
▁Answ	-11467
▁prompted	-11468
▁glow	-11469
ANT	-11470
▁assert	-11471
▁Application	-11472
▁unfortunately	-11473
drop	-11474
▁Citiz	-11475
▁legally	-11476
%。	-11477
▁beds	-11478
▁Baker	-11479
▁closest	-11480
▁Lot	-11481
▁warranty	-11482
spec	-11483
guard	-11484
▁seal	-11485
▁confirmation	-11486
Fr	-11487
▁EC	-11488
▁accum	-11489
▁jacket	-11490
▁electronics	-11491
whe	-11492
▁Cover	-11493
▁dough	-11494
▁spare	-11495
▁Eagles	-11496
▁advocate	-11497
▁coord	-11498
▁Dakota	-11499
▁oh	-11500
▁bits	-11501
▁candy	-11502
▁Madison	-11503
▁Craft	-11504
▁Agricult	-11505
▁departure	-11506
▁Race	-11507
▁buyer	-11508
iameter	-11509
▁publications	-11510
arre	-11511
▁Kr	-11512
assy	-11513
shore	-11514
▁Draft	-11515
▁accus	-11516
▁fluid	-11517
▁conversion	-11518
▁traged	-11519
▁navigate	-11520
ORT	-11521
▁Legisl	-11522
▁edited	-11523
▁execution	-11524
处理	-11525
▁Sau	-11526
▁Hend	-11527
▁showc	-11528
▁Islands	-11529
▁placing	-11530
▁Arkansas	-11531
uum	-11532
▁transgender	-11533
isons	-11534
aro	-11535
▁batteries	-11536
▁tourist	-11537
▁Michelle	-11538
▁phenomenon	-11539
▁intelligent	-11540
News	-11541
ixel	-11542
▁Carib	-11543
aughters	-11544
▁grants	-11545
issa	-11546
▁secrets	-11547
▁momentum	-11548
leading	-11549
▁Rangers	-11550
oops	-11551
▁Buffalo	-11552
▁donated	-11553
quer	-11554
▁arrangements	-11555
LD	-11556
▁Players	-11557
▁moderate	-11558
▁Upon	-11559
▁VA	-11560
▁comed	-11561
▁perpet	-11562
igration	-11563
first	-11564
▁ensures	-11565
▁expects	-11566
▁folder	-11567
▁mart	-11568
▁parad	-11569
▁shocked	-11570
▁spokeswoman	-11571
arat	-11572
▁predicted	-11573
▁tower	-11574
▁empower	-11575
▁achievement	-11576
▁na	-11577
▁Pope	-11578
▁embrace	-11579
Why	-11580
▁sentences	-11581
hou	-11582
▁pup	-11583
oria	-11584
what	-11585
▁helic	-11586
▁composition	-11587
▁entertaining	-11588
best	-11589
▁arc	-11590
▁dess	-11591
▁shame	-11592
ols	-11593
▁shaped	-11594
ICK	-11595
▁USD	-11596
▁Kit	-11597
▁Uber	-11598
▁affiliate	-11599
▁presum	-11600
▁compliment	-11601
utors	-11602
▁harsh	-11603
table	-11604
reement	-11605
▁Marg	-11606
▁rocks	-11607
closure	-11608
▁premiere	-11609
acent	-11610
▁Bart	-11611
itations	-11612
ocal	-11613
they	-11614
▁tong	-11615
▁inspection	-11616
▁fool	-11617
▁wounded	-11618
▁colorful	-11619
▁relating	-11620
idth	-11621
▁Lock	-11622
▁PhD	-11623
▁Version	-11624
▁nonprofit	-11625
▁tsp	-11626
▁dose	-11627
lend	-11628
▁scrap	-11629
▁beautifully	-11630
cure	-11631
▁Deputy	-11632
▁scratch	-11633
▁Describe	-11634
▁Industrial	-11635
▁Something	-11636
▁applicable	-11637
▁lawn	-11638
▁Speaker	-11639
▁pipeline	-11640
▁folk	-11641
▁Chamber	-11642
▁composed	-11643
▁beneath	-11644
iev	-11645
izable	-11646
▁Century	-11647
▁surprisingly	-11648
▁Insp	-11649
▁cents	-11650
▁imagination	-11651
▁的	-11652
RES	-11653
mph	-11654
▁AV	-11655
▁Junior	-11656
▁ward	-11657
ateral	-11658
▁grain	-11659
▁albums	-11660
▁Rio	-11661
▁Yeah	-11662
▁horr	-11663
▁//	-11664
▁dispos	-11665
▁gambling	-11666
agraph	-11667
esis	-11668
▁rust	-11669
Pr	-11670
▁notion	-11671
▁racist	-11672
▁preserve	-11673
▁Yesterday	-11674
▁poison	-11675
▁Regard	-11676
▁agriculture	-11677
▁GR	-11678
▁Circuit	-11679
uy	-11680
▁facial	-11681
▁tablets	-11682
▁cryptocur	-11683
▁slip	-11684
▁Sorry	-11685
▁accepting	-11686
▁''	-11687
bery	-11688
▁Rachel	-11689
▁Hem	-11690
▁Hub	-11691
ahu	-11692
▁lyrics	-11693
▁relation	-11694
▁Beautiful	-11695
▁symp	-11696
asm	-11697
ante	-11698
isting	-11699
▁devoted	-11700
▁Parker	-11701
▁Eb	-11702
▁Feat	-11703
▁Jobs	-11704
inction	-11705
▁replacing	-11706
ailand	-11707
▁glob	-11708
▁chairs	-11709
▁reminder	-11710
UI	-11711
▁Kal	-11712
strong	-11713
▁rhyth	-11714
▁analyze	-11715
gered	-11716
▁weakness	-11717
▁ye	-11718
ardo	-11719
html	-11720
▁compelling	-11721
lu	-11722
▁UPD	-11723
▁pleasant	-11724
igers	-11725
▁Simple	-11726
▁glasses	-11727
▁capability	-11728
ptic	-11729
▁Iranian	-11730
itzerland	-11731
▁Survey	-11732
▁cooling	-11733
▁counterpart	-11734
▁humor	-11735
▁wore	-11736
icating	-11737
++	-11738
▁GPS	-11739
▁None	-11740
▁explicit	-11741
GO	-11742
watch	-11743
▁Morris	-11744
Net	-11745
will	-11746
▁Athlet	-11747
founder	-11748
▁exhibit	-11749
reck	-11750
▁Around	-11751
▁Pil	-11752
▁premier	-11753
▁consultant	-11754
▁highlighted	-11755
▁NAT	-11756
▁Dance	-11757
▁Cambridge	-11758
▁VP	-11759
bling	-11760
▁Deal	-11761
▁Hans	-11762
▁fancy	-11763
▁inspiring	-11764
▁Guy	-11765
writer	-11766
▁offerings	-11767
▁demo	-11768
▁Jacob	-11769
▁Wonder	-11770
▁prevention	-11771
opter	-11772
▁Swiss	-11773
▁Enterprise	-11774
▁terrorists	-11775
▁一	-11776
▁Tyler	-11777
oks	-11778
kers	-11779
▁vig	-11780
▁notable	-11781
▁shade	-11782
▁Import	-11783
▁occasional	-11784
▁tempor	-11785
▁Brandon	-11786
▁Pad	-11787
▁Singh	-11788
▁Imagine	-11789
▁researcher	-11790
▁smartphones	-11791
▁addressing	-11792
▁pitc	-11793
▁collapse	-11794
fi	-11795
izations	-11796
▁Meeting	-11797
▁Analysis	-11798
▁Progress	-11799
▁appearing	-11800
▁challenged	-11801
▁Wee	-11802
▁wars	-11803
▁Boo	-11804
▁Chen	-11805
▁Gate	-11806
▁flavors	-11807
▁Whatever	-11808
▁resc	-11809
school	-11810
▁Advis	-11811
▁dramatically	-11812
mouth	-11813
▁oxygen	-11814
▁identifying	-11815
▁Dise	-11816
▁aging	-11817
▁cater	-11818
▁Barcel	-11819
目录	-11820
▁font	-11821
trans	-11822
ustain	-11823
▁Success	-11824
ropolitan	-11825
▁surfaces	-11826
▁NYC	-11827
▁Tickets	-11828
▁tension	-11829
▁Bright	-11830
▁breathing	-11831
▁entrepreneur	-11832
▁fled	-11833
▁Users	-11834
▁Castle	-11835
▁orient	-11836
▁tweets	-11837
▁Screen	-11838
▁radiation	-11839
quest	-11840
▁comics	-11841
▁handled	-11842
▁subur	-11843
▁Columbus	-11844
▁elim	-11845
▁drone	-11846
HD	-11847
▁Taiwan	-11848
▁automated	-11849
▁discounts	-11850
读取	-11851
▁Element	-11852
▁cycling	-11853
▁constitutional	-11854
▁Marshall	-11855
▁Jimmy	-11856
▁distur	-11857
▁Dest	-11858
▁trash	-11859
▁examination	-11860
▁euro	-11861
▁sons	-11862
plates	-11863
▁Hampshire	-11864
▁Rout	-11865
▁Medicare	-11866
▁SA	-11867
▁Rol	-11868
▁Collins	-11869
▁restrict	-11870
produ	-11871
▁appreciated	-11872
claim	-11873
▁Swedish	-11874
▁MB	-11875
pres	-11876
▁tomatoes	-11877
▁Franklin	-11878
▁Cass	-11879
aration	-11880
▁Beyond	-11881
▁ancest	-11882
▁stainless	-11883
clusive	-11884
▁pipe	-11885
▁Always	-11886
▁Hair	-11887
▁Tips	-11888
▁Almost	-11889
▁Heritage	-11890
▁Hann	-11891
▁Stanley	-11892
▁destinations	-11893
▁concentration	-11894
▁deemed	-11895
▁inquiry	-11896
▁depos	-11897
orted	-11898
▁silence	-11899
▁tens	-11900
▁Nigeria	-11901
原价	-11902
折后	-11903
▁一件	-11904
商品原价	-11905
折后再减	-11906
▁Half	-11907
▁一件商品原价	-11908
▁specialized	-11909
eled	-11910
large	-11911
▁Firef	-11912
▁ambit	-11913
istical	-11914
▁Liberal	-11915
▁pond	-11916
▁boots	-11917
▁Trek	-11918
▁Palm	-11919
▁persu	-11920
执行	-11921
▁Safe	-11922
▁inject	-11923
bet	-11924
▁missions	-11925
rez	-11926
▁torn	-11927
▁bones	-11928
▁physics	-11929
▁anonymous	-11930
▁motivation	-11931
公式	-11932
uru	-11933
▁nurse	-11934
▁Companies	-11935
▁Bah	-11936
▁bol	-11937
Co	-11938
▁ow	-11939
▁flee	-11940
▁worlds	-11941
ptions	-11942
berries	-11943
▁agreements	-11944
▁consulting	-11945
isd	-11946
▁Om	-11947
▁shoe	-11948
▁islands	-11949
Su	-11950
▁translation	-11951
▁om	-11952
gary	-11953
▁innocent	-11954
ped	-11955
▁fighter	-11956
▁counties	-11957
▁Touch	-11958
▁buried	-11959
▁theatre	-11960
reach	-11961
▁onion	-11962
otta	-11963
▁Fine	-11964
▁propag	-11965
▁Campaign	-11966
▁equality	-11967
aul	-11968
eared	-11969
▁bugs	-11970
▁climb	-11971
▁addiction	-11972
▁Keith	-11973
▁Virtual	-11974
▁rewards	-11975
Now	-11976
▁Fan	-11977
▁Nap	-11978
▁cultiv	-11979
▁Douglas	-11980
▁CBD	-11981
third	-11982
▁converted	-11983
erto	-11984
▁Begin	-11985
▁Commerce	-11986
▁Barcelona	-11987
▁Switzerland	-11988
▁coinc	-11989
▁borders	-11990
▁harmful	-11991
▁Universal	-11992
▁cree	-11993
▁Yellow	-11994
▁traveled	-11995
▁prescription	-11996
▁oun	-11997
aukee	-11998
▁Delivery	-11999
▁viral	-12000
▁describing	-12001
▁Conservative	-12002
▁Pin	-12003
chair	-12004
boards	-12005
itative	-12006
▁renowned	-12007
▁treats	-12008
▁replied	-12009
▁workforce	-12010
▁Commercial	-12011
▁friendship	-12012
▁Metal	-12013
cca	-12014
▁Tob	-12015
▁Neil	-12016
▁Evans	-12017
▁Toyota	-12018
▁shorter	-12019
▁identification	-12020
▁intr	-12021
▁DR	-12022
▁GB	-12023
▁dried	-12024
FT	-12025
▁Sin	-12026
▁Barry	-12027
▁caring	-12028
▁treating	-12029
▁defending	-12030
▁travelling	-12031
▁populations	-12032
▁Fly	-12033
▁Gaza	-12034
▁assignment	-12035
▁churches	-12036
▁unnecess	-12037
▁piano	-12038
▁forums	-12039
▁timely	-12040
appropri	-12041
▁}	-12042
▁Murphy	-12043
▁gray	-12044
▁anytime	-12045
▁Fif	-12046
▁lone	-12047
arency	-12048
ending	-12049
cled	-12050
olved	-12051
▁inhab	-12052
▁Holiday	-12053
▁physician	-12054
▁Audio	-12055
▁scholarship	-12056
acred	-12057
azines	-12058
const	-12059
▁Broadway	-12060
plant	-12061
▁wings	-12062
OST	-12063
isy	-12064
▁rings	-12065
▁efficiently	-12066
▁manufactured	-12067
写一个	-12068
▁voter	-12069
▁damages	-12070
▁Si	-12071
▁Falls	-12072
▁praise	-12073
▁rocket	-12074
▁broader	-12075
▁Particip	-12076
▁editorial	-12077
▁awa	-12078
vi	-12079
asket	-12080
▁Terry	-12081
▁Coffee	-12082
▁honored	-12083
▁Stanford	-12084
▁disorders	-12085
rendum	-12086
isers	-12087
▁builds	-12088
▁considerable	-12089
writing	-12090
▁struggles	-12091
▁trains	-12092
▁reminded	-12093
ulu	-12094
▁legitimate	-12095
onia	-12096
▁rookie	-12097
▁contractor	-12098
▁Sens	-12099
Script	-12100
▁combines	-12101
▁confusion	-12102
▁pockets	-12103
▁vanilla	-12104
olo	-12105
▁Ward	-12106
▁prosecutors	-12107
▁Poland	-12108
▁whereas	-12109
▁dismissed	-12110
▁liability	-12111
alling	-12112
▁traded	-12113
▁aluminum	-12114
▁boom	-12115
结果	-12116
▁Cav	-12117
▁Liberty	-12118
▁teenager	-12119
▁Dal	-12120
▁feeding	-12121
▁Bloomberg	-12122
▁Mario	-12123
bird	-12124
arity	-12125
▁adventures	-12126
OME	-12127
▁lbs	-12128
umbled	-12129
▁Ts	-12130
▁Anim	-12131
▁guides	-12132
▁Caribbean	-12133
amel	-12134
▁sacrif	-12135
▁highway	-12136
▁Thailand	-12137
▁investigations	-12138
▁outdoors	-12139
▁interactions	-12140
▁gest	-12141
▁width	-12142
mith	-12143
▁FDA	-12144
▁Vik	-12145
▁Robin	-12146
▁firing	-12147
▁difficulties	-12148
▁Gray	-12149
children	-12150
ublin	-12151
erator	-12152
▁Pictures	-12153
▁Steam	-12154
▁mature	-12155
▁contributing	-12156
▁GO	-12157
▁sisters	-12158
▁versatile	-12159
▁journalism	-12160
▁Woman	-12161
▁Emergency	-12162
enez	-12163
▁pound	-12164
imb	-12165
▁MI	-12166
pling	-12167
▁celebrity	-12168
▁acknowledged	-12169
ucker	-12170
▁Seven	-12171
▁digest	-12172
▁animation	-12173
▁excellence	-12174
▁transferred	-12175
▁ought	-12176
▁biological	-12177
▁AG	-12178
umni	-12179
▁Ord	-12180
▁animated	-12181
▁implementing	-12182
pose	-12183
▁pose	-12184
▁ric	-12185
▁Qual	-12186
around	-12187
lie	-12188
▁Tesla	-12189
▁naked	-12190
count	-12191
▁Python	-12192
▁Temple	-12193
▁essays	-12194
ifferent	-12195
▁Ho	-12196
▁coordinator	-12197
▁Danny	-12198
natural	-12199
▁quantity	-12200
▁sporting	-12201
▁recovered	-12202
ML	-12203
laimed	-12204
rons	-12205
▁gaining	-12206
▁ambitious	-12207
▁oils	-12208
▁Mitchell	-12209
▁receives	-12210
▁sail	-12211
million	-12212
▁Ottawa	-12213
UE	-12214
▁Ronald	-12215
unct	-12216
ailing	-12217
▁seller	-12218
▁profiles	-12219
▁alternatives	-12220
▁Ze	-12221
▁influential	-12222
▁Kurd	-12223
▁questioned	-12224
UC	-12225
▁aqu	-12226
emade	-12227
▁missile	-12228
shine	-12229
▁tactics	-12230
▁TX	-12231
▁Sox	-12232
▁Tar	-12233
▁grat	-12234
▁probe	-12235
▁logic	-12236
▁romance	-12237
inate	-12238
▁controller	-12239
pen	-12240
▁outer	-12241
▁Fashion	-12242
▁wherever	-12243
▁gut	-12244
▁medic	-12245
▁indu	-12246
▁poem	-12247
keeper	-12248
▁Crown	-12249
security	-12250
▁touched	-12251
▁Question	-12252
▁insisted	-12253
▁unsu	-12254
▁delayed	-12255
▁colleges	-12256
▁Joh	-12257
lington	-12258
▁**	-12259
▁gardens	-12260
▁rebuild	-12261
▁portable	-12262
▁experiments	-12263
plete	-12264
▁Pros	-12265
▁nest	-12266
▁branches	-12267
rowing	-12268
▁Cream	-12269
▁plates	-12270
atherine	-12271
▁climbing	-12272
olk	-12273
amac	-12274
▁Native	-12275
▁clever	-12276
▁assumed	-12277
▁downloaded	-12278
▁Edit	-12279
isms	-12280
idding	-12281
▁wages	-12282
▁crimin	-12283
▁utilize	-12284
▁Weather	-12285
▁municipal	-12286
▁Knight	-12287
▁discour	-12288
TR	-12289
vet	-12290
▁HE	-12291
hered	-12292
driven	-12293
▁specialists	-12294
▁Pas	-12295
▁heroes	-12296
▁dominated	-12297
▁Kyle	-12298
▁paintings	-12299
▁blockchain	-12300
▁Alberta	-12301
▁battles	-12302
owing	-12303
▁potatoes	-12304
DR	-12305
▁caps	-12306
▁shake	-12307
MB	-12308
awks	-12309
▁dive	-12310
▁honestly	-12311
Mar	-12312
▁pays	-12313
WA	-12314
adi	-12315
▁Taking	-12316
▁trillion	-12317
▁MC	-12318
▁Lem	-12319
▁ignored	-12320
▁agricultural	-12321
▁Investig	-12322
▁duo	-12323
waukee	-12324
white	-12325
ocated	-12326
ventions	-12327
▁acceler	-12328
▁crossed	-12329
▁disability	-12330
▁barg	-12331
▁noting	-12332
▁sustainability	-12333
Pal	-12334
▁Region	-12335
▁Barbara	-12336
▁pointing	-12337
▁peers	-12338
lies	-12339
People	-12340
▁fossil	-12341
▁poetry	-12342
▁effectiveness	-12343
▁closure	-12344
▁contend	-12345
▁contacts	-12346
▁moisture	-12347
▁devastating	-12348
▁lease	-12349
▁cleared	-12350
▁discipline	-12351
▁Grey	-12352
▁Path	-12353
▁directory	-12354
▁boundaries	-12355
▁promotional	-12356
▁biz	-12357
▁Soul	-12358
▁laboratory	-12359
▁technological	-12360
▁Karen	-12361
▁fires	-12362
▁Ground	-12363
▁eighth	-12364
▁Housing	-12365
▁Official	-12366
▁NSA	-12367
▁Command	-12368
▁midnight	-12369
▁violations	-12370
ao	-12371
▁stroke	-12372
blog	-12373
▁peer	-12374
▁worthy	-12375
▁simultaneously	-12376
size	-12377
▁Fem	-12378
▁evolved	-12379
▁outrage	-12380
omic	-12381
▁Sent	-12382
▁firef	-12383
▁grows	-12384
▁unlimited	-12385
link	-12386
▁scary	-12387
▁practition	-12388
优化	-12389
▁ash	-12390
▁dear	-12391
▁navigation	-12392
▁计算	-12393
▁reun	-12394
▁playoffs	-12395
half	-12396
▁tang	-12397
▁Malaysia	-12398
▁Summit	-12399
▁enabling	-12400
▁Sel	-12401
▁Ferr	-12402
▁beaten	-12403
▁foster	-12404
▁facilitate	-12405
▁GMT	-12406
▁Kath	-12407
▁vaccine	-12408
▁Discover	-12409
▁civilians	-12410
▁%	-12411
boys	-12412
▁Oft	-12413
▁lun	-12414
encer	-12415
▁calories	-12416
▁promoted	-12417
▁desperate	-12418
▁Shan	-12419
▁vertical	-12420
▁Vermont	-12421
▁relaxed	-12422
▁Apparently	-12423
▁Dod	-12424
▁Ready	-12425
▁badly	-12426
▁lovers	-12427
▁accidents	-12428
istle	-12429
▁steep	-12430
orient	-12431
▁venues	-12432
▁rack	-12433
▁Practice	-12434
rate	-12435
▁Soon	-12436
payers	-12437
▁profound	-12438
base	-12439
▁coins	-12440
▁escal	-12441
▁suits	-12442
▁Bio	-12443
wick	-12444
itual	-12445
▁specified	-12446
▁Greater	-12447
umph	-12448
▁Pel	-12449
▁starter	-12450
▁Vi	-12451
▁briefly	-12452
▁elderly	-12453
▁exterior	-12454
actic	-12455
▁sexually	-12456
avirus	-12457
▁metab	-12458
IDS	-12459
▁neglect	-12460
▁pending	-12461
▁Federation	-12462
▁bankruptcy	-12463
▁infections	-12464
aments	-12465
▁draws	-12466
▁neat	-12467
▁Train	-12468
▁analog	-12469
▁unions	-12470
▁fitting	-12471
▁fate	-12472
▁beaches	-12473
▁provisions	-12474
▁Airl	-12475
▁pork	-12476
▁Verizon	-12477
some	-12478
Web	-12479
▁Apart	-12480
▁shield	-12481
▁pretend	-12482
▁Rew	-12483
▁visa	-12484
▁fence	-12485
▁Kay	-12486
▁congressional	-12487
▁Benj	-12488
linary	-12489
develop	-12490
prises	-12491
▁citing	-12492
▁attacking	-12493
▁explosion	-12494
▁introducing	-12495
▁deciding	-12496
▁Gard	-12497
▁outlet	-12498
▁wealthy	-12499
▁revenues	-12500
▁Gi	-12501
▁Bott	-12502
▁YOUR	-12503
▁brick	-12504
▁Cu	-12505
▁speculation	-12506
▁investor	-12507
▁trails	-12508
aning	-12509
▁Researchers	-12510
ospel	-12511
▁Brexit	-12512
▁instances	-12513
▁Fel	-12514
▁Liter	-12515
▁ghost	-12516
▁Casino	-12517
▁Brun	-12518
▁Trip	-12519
▁epid	-12520
▁Dubai	-12521
▁poker	-12522
▁Jessica	-12523
▁Iraqi	-12524
▁nuts	-12525
umbing	-12526
▁priced	-12527
Just	-12528
▁breed	-12529
▁Indonesia	-12530
▁conducting	-12531
▁Ele	-12532
oline	-12533
▁Bapt	-12534
▁fare	-12535
▁Written	-12536
▁ster	-12537
▁inflamm	-12538
anka	-12539
block	-12540
▁respected	-12541
▁Cinc	-12542
asting	-12543
▁appet	-12544
▁Budget	-12545
▁achieving	-12546
▁economics	-12547
thod	-12548
kward	-12549
▁prints	-12550
▁locate	-12551
irmingham	-12552
type	-12553
▁paragraph	-12554
▁Strateg	-12555
▁Snap	-12556
Col	-12557
icity	-12558
▁stack	-12559
▁evident	-12560
▁mounted	-12561
▁lap	-12562
▁duration	-12563
▁fer	-12564
▁Dublin	-12565
▁donate	-12566
function	-12567
▁strain	-12568
sk	-12569
▁RAM	-12570
▁robots	-12571
▁ridiculous	-12572
▁一个	-12573
enna	-12574
▁Alt	-12575
▁Harper	-12576
▁Ring	-12577
▁Alb	-12578
▁Lux	-12579
▁Cann	-12580
▁conspiracy	-12581
addle	-12582
orical	-12583
thal	-12584
▁gran	-12585
▁Military	-12586
▁marketplace	-12587
gends	-12588
▁forcing	-12589
▁Graph	-12590
▁troubles	-12591
▁precisely	-12592
nan	-12593
itudes	-12594
ooting	-12595
▁Consumer	-12596
▁affecting	-12597
▁Lie	-12598
▁silent	-12599
▁reduces	-12600
TIS	-12601
▁Mitt	-12602
▁senator	-12603
Us	-12604
isure	-12605
▁Johnny	-12606
▁reactions	-12607
stick	-12608
azy	-12609
▁IL	-12610
elta	-12611
▁boring	-12612
▁pedest	-12613
story	-12614
commun	-12615
▁Colomb	-12616
▁rumors	-12617
▁Norway	-12618
▁Ger	-12619
▁accompany	-12620
▁influenced	-12621
By	-12622
▁referendum	-12623
hess	-12624
▁mamm	-12625
lay	-12626
amacare	-12627
▁boats	-12628
▁booth	-12629
▁recruiting	-12630
▁comply	-12631
▁purple	-12632
▁funeral	-12633
aman	-12634
▁Reds	-12635
▁waist	-12636
▁Located	-12637
▁BMW	-12638
▁Leave	-12639
▁traff	-12640
▁Technical	-12641
anim	-12642
orts	-12643
▁costume	-12644
▁Doug	-12645
▁bearing	-12646
▁calc	-12647
master	-12648
▁vessel	-12649
onge	-12650
▁Vit	-12651
▁renov	-12652
▁locals	-12653
▁supplier	-12654
opes	-12655
▁tar	-12656
▁Dress	-12657
▁divers	-12658
▁merchand	-12659
▁testimony	-12660
inery	-12661
▁hypot	-12662
▁analytics	-12663
quet	-12664
▁Math	-12665
▁Rank	-12666
▁burden	-12667
Well	-12668
borne	-12669
▁Vlad	-12670
▁acceptable	-12671
marks	-12672
▁inher	-12673
有多少人	-12674
▁Episode	-12675
▁collaps	-12676
▁irre	-12677
▁Honda	-12678
▁novels	-12679
▁supplied	-12680
▁Tol	-12681
▁tribute	-12682
逐步	-12683
▁inval	-12684
▁scared	-12685
etheless	-12686
emet	-12687
HL	-12688
▁Lex	-12689
innati	-12690
▁daughters	-12691
▁overd	-12692
▁slots	-12693
▁compassion	-12694
▁eru	-12695
Ed	-12696
▁的结果	-12697
▁bureau	-12698
▁perception	-12699
▁逐步	-12700
rosc	-12701
▁Scar	-12702
▁逐步计算	-12703
ailed	-12704
▁convey	-12705
▁stays	-12706
▁WA	-12707
gged	-12708
▁restricted	-12709
▁Clay	-12710
▁twin	-12711
▁volunt	-12712
▁dressing	-12713
See	-12714
▁broker	-12715
▁demanded	-12716
▁squee	-12717
▁sustained	-12718
▁Grace	-12719
▁cloth	-12720
▁Individual	-12721
▁EPA	-12722
offs	-12723
gments	-12724
izard	-12725
working	-12726
▁foam	-12727
▁Hud	-12728
thood	-12729
▁Hours	-12730
▁Listen	-12731
▁heated	-12732
▁remembered	-12733
▁Kel	-12734
ipper	-12735
▁washing	-12736
▁crossing	-12737
▁apartments	-12738
arer	-12739
▁Pap	-12740
outed	-12741
▁Compl	-12742
▁excessive	-12743
▁Gift	-12744
▁sponsor	-12745
▁announcing	-12746
▁Baseball	-12747
hu	-12748
▁Stri	-12749
▁rhet	-12750
▁audit	-12751
▁pension	-12752
▁Merc	-12753
▁Butter	-12754
▁charts	-12755
▁authorized	-12756
illo	-12757
omed	-12758
anded	-12759
▁Premium	-12760
▁situated	-12761
▁DIY	-12762
▁grip	-12763
▁burst	-12764
▁disappear	-12765
▁magazines	-12766
Yes	-12767
atson	-12768
urers	-12769
▁shore	-12770
▁listings	-12771
▁matt	-12772
▁guided	-12773
▁gameplay	-12774
▁longtime	-12775
▁acceptance	-12776
har	-12777
inyl	-12778
pace	-12779
▁maj	-12780
written	-12781
▁Against	-12782
▁embedded	-12783
▁parallel	-12784
▁wondered	-12785
▁backs	-12786
▁colored	-12787
▁recession	-12788
▁Milwaukee	-12789
▁IBM	-12790
▁Match	-12791
ribution	-12792
▁Hat	-12793
▁Jake	-12794
▁retreat	-12795
▁enjoyable	-12796
Car	-12797
▁shine	-12798
▁amendment	-12799
▁subscribers	-12800
▁Abu	-12801
▁affair	-12802
▁appealing	-12803
code	-12804
stage	-12805
▁Blues	-12806
▁installing	-12807
inters	-12808
▁Occup	-12809
▁prost	-12810
▁steal	-12811
▁burned	-12812
▁relaxing	-12813
▁bother	-12814
▁presenting	-12815
▁freshman	-12816
▁CPU	-12817
▁coconut	-12818
▁tragedy	-12819
▁regarded	-12820
▁Tun	-12821
▁noon	-12822
▁tropical	-12823
rant	-12824
▁mush	-12825
▁Operations	-12826
Mon	-12827
▁deny	-12828
IB	-12829
asses	-12830
▁Lost	-12831
▁tags	-12832
▁isolated	-12833
poons	-12834
▁Parks	-12835
▁optional	-12836
▁ordering	-12837
▁vegetable	-12838
▁Artist	-12839
ceptions	-12840
powered	-12841
▁Weekly	-12842
▁Certified	-12843
▁Len	-12844
▁Jamie	-12845
▁prizes	-12846
▁derived	-12847
▁Introduction	-12848
ACT	-12849
ATED	-12850
▁strive	-12851
▁bedrooms	-12852
▁interviewed	-12853
▁ende	-12854
pg	-12855
▁accurately	-12856
JP	-12857
rik	-12858
commerce	-12859
▁LE	-12860
▁clouds	-12861
▁basement	-12862
▁dominant	-12863
▁cognitive	-12864
▁Birmingham	-12865
▁customized	-12866
▁responding	-12867
▁incorporate	-12868
dog	-12869
▁preventing	-12870
holder	-12871
▁Spect	-12872
▁fract	-12873
▁traditions	-12874
ylum	-12875
▁corners	-12876
▁Benjamin	-12877
▁billions	-12878
lett	-12879
ussels	-12880
▁tires	-12881
itivity	-12882
▁mandatory	-12883
▁Fer	-12884
▁pant	-12885
▁Devil	-12886
▁frames	-12887
▁intimate	-12888
▁spreading	-12889
Free	-12890
zech	-12891
▁loads	-12892
▁reaches	-12893
▁Registration	-12894
▁witnessed	-12895
▁deserves	-12896
▁CV	-12897
▁safer	-12898
▁prestigious	-12899
direct	-12900
emetery	-12901
▁internationally	-12902
▁toug	-12903
▁sensors	-12904
▁dependent	-12905
▁crystal	-12906
▁nowhere	-12907
▁penn	-12908
cs	-12909
▁lined	-12910
ancellor	-12911
▁relatives	-12912
mented	-12913
▁Leban	-12914
▁Reddit	-12915
▁permits	-12916
▁occupied	-12917
▁Throughout	-12918
▁PT	-12919
▁newspapers	-12920
dig	-12921
bably	-12922
▁variable	-12923
▁fundraising	-12924
▁preliminary	-12925
速度	-12926
ques	-12927
▁irrit	-12928
▁examined	-12929
More	-12930
okia	-12931
▁valued	-12932
▁Holland	-12933
▁protective	-12934
▁batch	-12935
jud	-12936
▁deployed	-12937
bat	-12938
jan	-12939
▁Ing	-12940
▁nominated	-12941
▁streak	-12942
▁Patriots	-12943
▁stressed	-12944
di	-12945
▁Woods	-12946
omore	-12947
▁hike	-12948
iasm	-12949
▁Kirk	-12950
▁Voice	-12951
▁glory	-12952
▁Commons	-12953
▁ox	-12954
▁brave	-12955
ivic	-12956
century	-12957
▁unlock	-12958
▁invested	-12959
▁identical	-12960
▁approaching	-12961
▁camps	-12962
▁Fantasy	-12963
▁globally	-12964
▁Cincinnati	-12965
artz	-12966
▁Lif	-12967
▁Billy	-12968
▁separated	-12969
▁Palace	-12970
▁GA	-12971
▁Feel	-12972
▁tricks	-12973
▁Airlines	-12974
▁Contract	-12975
▁qualities	-12976
adows	-12977
▁Wash	-12978
▁preferences	-12979
has	-12980
depth	-12981
▁Alice	-12982
▁bases	-12983
▁Peters	-12984
▁Wikipedia	-12985
▁coin	-12986
▁wheat	-12987
▁Racing	-12988
untu	-12989
▁specialty	-12990
▁uncertainty	-12991
UB	-12992
uming	-12993
▁arranged	-12994
▁\	-12995
ois	-12996
▁Dat	-12997
green	-12998
▁regards	-12999
▁rankings	-13000
Res	-13001
▁cure	-13002
▁stimul	-13003
▁confidential	-13004
▁od	-13005
▁rivals	-13006
CI	-13007
▁jurisd	-13008
▁permitted	-13009
▁disk	-13010
▁founding	-13011
▁organize	-13012
▁Syn	-13013
▁Mason	-13014
borough	-13015
▁cosmet	-13016
▁compiled	-13017
ELL	-13018
▁Mumb	-13019
▁Often	-13020
▁arriving	-13021
▁Pier	-13022
▁shelf	-13023
▁horn	-13024
▁formats	-13025
▁Clar	-13026
▁Really	-13027
news	-13028
imens	-13029
▁WITH	-13030
▁tongue	-13031
▁superb	-13032
girl	-13033
▁Arthur	-13034
specific	-13035
▁amenities	-13036
CR	-13037
▁Dra	-13038
▁soap	-13039
achers	-13040
▁unfair	-13041
▁households	-13042
▁sink	-13043
▁leaked	-13044
▁projected	-13045
cott	-13046
▁prol	-13047
cha	-13048
doc	-13049
cedes	-13050
▁packs	-13051
▁pressing	-13052
ND	-13053
▁Bos	-13054
ported	-13055
rients	-13056
▁Yemen	-13057
▁transformed	-13058
OVE	-13059
▁Thor	-13060
▁adequate	-13061
▁grandmother	-13062
▁loyalty	-13063
▁Fortunately	-13064
▁Init	-13065
▁racism	-13066
▁Brazilian	-13067
▁advocacy	-13068
▁harassment	-13069
▁reign	-13070
▁hungry	-13071
▁Protect	-13072
ME	-13073
▁avo	-13074
▁medal	-13075
▁Wedding	-13076
▁RT	-13077
isco	-13078
▁ate	-13079
ivan	-13080
health	-13081
▁retro	-13082
▁subsequently	-13083
▁saves	-13084
▁Strong	-13085
▁allerg	-13086
▁priorities	-13087
▁Leaf	-13088
VERTIS	-13089
▁propri	-13090
▁Usually	-13091
ilitation	-13092
▁Designed	-13093
▁attendees	-13094
erals	-13095
▁Turner	-13096
▁Political	-13097
bin	-13098
▁bay	-13099
▁constr	-13100
▁convince	-13101
▁accordance	-13102
▁Ful	-13103
▁tel	-13104
▁Ferg	-13105
▁sequel	-13106
Post	-13107
▁intu	-13108
▁sweat	-13109
▁Restaurant	-13110
ext	-13111
forcement	-13112
inkle	-13113
▁basics	-13114
▁elabor	-13115
▁rational	-13116
▁我在写	-13117
▁diver	-13118
entials	-13119
▁varied	-13120
▁detection	-13121
▁understands	-13122
▁Tag	-13123
arios	-13124
rencies	-13125
▁prosper	-13126
▁modules	-13127
GS	-13128
owski	-13129
▁Beth	-13130
▁resemb	-13131
▁serial	-13132
▁circles	-13133
such	-13134
▁fet	-13135
▁meth	-13136
▁measurements	-13137
▁contractors	-13138
ede	-13139
▁Conn	-13140
rolling	-13141
othy	-13142
▁rou	-13143
named	-13144
umbers	-13145
AK	-13146
▁lane	-13147
▁Dynam	-13148
▁depict	-13149
▁triple	-13150
email	-13151
▁Culture	-13152
ictionary	-13153
▁Reid	-13154
▁commentary	-13155
▁instructor	-13156
▁Picture	-13157
▁reforms	-13158
▁floating	-13159
▁Ald	-13160
income	-13161
▁treas	-13162
▁utter	-13163
neath	-13164
▁advances	-13165
▁evac	-13166
▁arrangement	-13167
comp	-13168
▁delet	-13169
▁mutual	-13170
▁presentations	-13171
▁Asked	-13172
ele	-13173
anship	-13174
▁Saints	-13175
▁fitted	-13176
女生占	-13177
▁Eye	-13178
▁女生占	-13179
▁enjoys	-13180
▁Isa	-13181
keley	-13182
▁demonstration	-13183
anne	-13184
▁awkward	-13185
▁sq	-13186
▁criticized	-13187
je	-13188
IGHT	-13189
▁Coc	-13190
▁WWE	-13191
▁Reports	-13192
▁motorcycle	-13193
▁attractions	-13194
zo	-13195
▁Tu	-13196
▁partly	-13197
▁measuring	-13198
▁chamber	-13199
▁semester	-13200
imir	-13201
▁headline	-13202
leased	-13203
ividually	-13204
ellar	-13205
▁subt	-13206
▁theories	-13207
||$	-13208
ostic	-13209
▁Chron	-13210
▁arena	-13211
▁privilege	-13212
▁anth	-13213
▁dairy	-13214
▁scal	-13215
user	-13216
▁refuse	-13217
▁Associate	-13218
▁joins	-13219
▁mothers	-13220
engu	-13221
▁flip	-13222
▁ADVERTIS	-13223
▁disabilities	-13224
▁Cov	-13225
▁Emily	-13226
▁copper	-13227
▁starring	-13228
oub	-13229
▁Tigers	-13230
▁raises	-13231
▁adviser	-13232
▁witnesses	-13233
▁containers	-13234
▁booked	-13235
amine	-13236
▁READ	-13237
atched	-13238
▁rides	-13239
▁boasts	-13240
▁experimental	-13241
▁Od	-13242
▁Adult	-13243
▁arbit	-13244
ju	-13245
▁Ry	-13246
▁tob	-13247
▁Crystal	-13248
▁applicants	-13249
Des	-13250
two	-13251
plan	-13252
▁Egyptian	-13253
Am	-13254
After	-13255
▁Sold	-13256
vation	-13257
▁beings	-13258
▁SK	-13259
▁Adobe	-13260
▁transparent	-13261
▁interpretation	-13262
▁lips	-13263
设计	-13264
▁Lower	-13265
abad	-13266
▁cookie	-13267
▁blessed	-13268
uto	-13269
▁ic	-13270
aws	-13271
▁fails	-13272
▁inequ	-13273
▁woods	-13274
ipes	-13275
▁Bradley	-13276
Ste	-13277
▁Basic	-13278
▁laundry	-13279
▁Valentine	-13280
▁reflection	-13281
▁NJ	-13282
▁Remove	-13283
▁soldier	-13284
▁Universe	-13285
▁dealer	-13286
gence	-13287
▁accel	-13288
SD	-13289
▁receipt	-13290
▁ank	-13291
▁Repl	-13292
▁Interview	-13293
▁arguing	-13294
▁Brothers	-13295
▁PD	-13296
idges	-13297
▁immers	-13298
▁infected	-13299
▁migration	-13300
▁ethical	-13301
▁Jefferson	-13302
▁mg	-13303
▁wound	-13304
▁teaches	-13305
▁Desk	-13306
▁Purch	-13307
▁modest	-13308
▁Richmond	-13309
▁hem	-13310
▁excuse	-13311
▁suspic	-13312
mers	-13313
▁Costa	-13314
▁chaos	-13315
▁seized	-13316
▁thirty	-13317
▁Profile	-13318
▁gradually	-13319
▁frustrated	-13320
▁submission	-13321
inance	-13322
▁costly	-13323
▁Sacr	-13324
▁Viol	-13325
▁Sandy	-13326
▁stating	-13327
▁Leadership	-13328
lon	-13329
▁scrut	-13330
▁searches	-13331
▁travels	-13332
▁Obamacare	-13333
▁retrie	-13334
▁significance	-13335
▁thumb	-13336
▁consensus	-13337
▁shelves	-13338
▁greenhouse	-13339
Some	-13340
looking	-13341
▁imposed	-13342
encil	-13343
▁defic	-13344
▁Active	-13345
▁Election	-13346
▁invitation	-13347
▁Furn	-13348
ascular	-13349
▁dealers	-13350
rek	-13351
▁Bund	-13352
▁Nurs	-13353
▁flew	-13354
▁paths	-13355
▁Jazz	-13356
▁Corps	-13357
▁monster	-13358
▁newsletters	-13359
▁tract	-13360
▁gau	-13361
▁pert	-13362
ordable	-13363
▁stones	-13364
effective	-13365
▁Philip	-13366
PE	-13367
▁awful	-13368
▁SL	-13369
▁Pret	-13370
▁arom	-13371
▁NATO	-13372
▁exem	-13373
▁presidency	-13374
chi	-13375
orld	-13376
▁grades	-13377
▁defender	-13378
edge	-13379
▁shy	-13380
▁verify	-13381
▁Nokia	-13382
▁lighter	-13383
▁teenage	-13384
AI	-13385
▁Garc	-13386
▁sidew	-13387
▁IRS	-13388
▁regret	-13389
▁compound	-13390
▁Soccer	-13391
▁appliances	-13392
eli	-13393
heimer	-13394
▁temple	-13395
▁literary	-13396
▁magnetic	-13397
▁incorrect	-13398
cap	-13399
▁heal	-13400
▁reflected	-13401
▁separately	-13402
degree	-13403
▁Truth	-13404
▁bonds	-13405
▁recommendation	-13406
▁Corporate	-13407
pop	-13408
▁McM	-13409
chestra	-13410
▁Hockey	-13411
▁delicate	-13412
▁revealing	-13413
amily	-13414
uisine	-13415
▁compromise	-13416
acies	-13417
brew	-13418
▁Stories	-13419
▁rend	-13420
▁horrible	-13421
▁unnecessary	-13422
paid	-13423
▁sunny	-13424
▁Nearly	-13425
▁uncomfortable	-13426
▁brutal	-13427
▁bizarre	-13428
▁grabbed	-13429
▁diameter	-13430
▁Chuck	-13431
▁enthusiasm	-13432
▁medications	-13433
▁orientation	-13434
▁Abs	-13435
▁rushed	-13436
▁barrier	-13437
▁Beng	-13438
lusive	-13439
ometown	-13440
otherapy	-13441
▁Problem	-13442
▁distinctive	-13443
▁Dad	-13444
▁rect	-13445
▁suggestion	-13446
pin	-13447
▁approve	-13448
▁constitu	-13449
▁pursuing	-13450
▁psychology	-13451
elli	-13452
▁Rot	-13453
▁Gear	-13454
▁Mumbai	-13455
▁browse	-13456
▁solving	-13457
▁EST	-13458
▁Sett	-13459
▁caution	-13460
▁Wildlife	-13461
mile	-13462
▁vel	-13463
icaid	-13464
▁Celt	-13465
▁limitations	-13466
▁Technologies	-13467
▁Interior	-13468
▁Nashville	-13469
▁Ot	-13470
▁Notes	-13471
castle	-13472
▁suited	-13473
▁tends	-13474
eded	-13475
unge	-13476
▁Pic	-13477
▁Pete	-13478
onde	-13479
instein	-13480
▁crowds	-13481
▁delays	-13482
▁exchanges	-13483
▁parameters	-13484
▁fights	-13485
▁Belgium	-13486
▁complexity	-13487
VC	-13488
▁Pul	-13489
▁terminal	-13490
▁Edge	-13491
▁vinyl	-13492
▁attraction	-13493
▁generating	-13494
▁transparency	-13495
▁Thunder	-13496
生占	-13497
男生占	-13498
▁Okay	-13499
▁Ridge	-13500
▁placement	-13501
班有	-13502
▁Pra	-13503
▁一个班有	-13504
女生有多少人	-13505
Int	-13506
▁pasta	-13507
▁handles	-13508
note	-13509
▁eleph	-13510
▁hiding	-13511
▁chemistry	-13512
▁sparked	-13513
怎么	-13514
▁caf	-13515
▁Mine	-13516
▁Chocolate	-13517
▁diplom	-13518
▁seating	-13519
▁intensity	-13520
▁sentiment	-13521
▁encourages	-13522
En	-13523
▁exped	-13524
▁Montana	-13525
idity	-13526
orate	-13527
▁Lucas	-13528
▁Visual	-13529
▁crafted	-13530
ango	-13531
etooth	-13532
▁minim	-13533
▁Rug	-13534
▁yeah	-13535
▁coastal	-13536
fulness	-13537
▁essence	-13538
▁Pharm	-13539
▁tasty	-13540
▁tuned	-13541
▁dedication	-13542
▁liv	-13543
▁chains	-13544
▁farming	-13545
▁kingdom	-13546
▁investigated	-13547
▁Rou	-13548
▁entity	-13549
▁commod	-13550
▁arrives	-13551
▁recycling	-13552
Bay	-13553
▁indication	-13554
▁unh	-13555
▁Lang	-13556
▁bron	-13557
▁Ultra	-13558
▁Vision	-13559
▁printer	-13560
▁vessels	-13561
▁neighborhoods	-13562
▁reass	-13563
▁optimal	-13564
▁shocking	-13565
uez	-13566
▁Oracle	-13567
▁Fisher	-13568
▁relate	-13569
▁runner	-13570
▁catching	-13571
▁Vent	-13572
▁mixing	-13573
▁shades	-13574
RP	-13575
Ass	-13576
▁multip	-13577
▁jumping	-13578
▁Therap	-13579
▁Instruct	-13580
resa	-13581
▁Horn	-13582
innamon	-13583
▁commented	-13584
▁calculated	-13585
▁conferences	-13586
▁Draw	-13587
▁Object	-13588
▁Privacy	-13589
▁frustration	-13590
▁appreciation	-13591
connect	-13592
▁camping	-13593
▁classical	-13594
ylon	-13595
▁Bryan	-13596
▁prede	-13597
▁Chicken	-13598
▁recipient	-13599
▁SUV	-13600
▁ritual	-13601
▁thesis	-13602
▁casting	-13603
▁dresses	-13604
▁vo	-13605
▁sla	-13606
▁crops	-13607
▁canvas	-13608
▁healthier	-13609
▁algorithms	-13610
roe	-13611
▁UV	-13612
mare	-13613
gical	-13614
▁Skin	-13615
▁Representatives	-13616
IES	-13617
▁damn	-13618
▁Watson	-13619
▁hazard	-13620
▁spirits	-13621
ref	-13622
▁gently	-13623
▁betting	-13624
▁quietly	-13625
▁variations	-13626
▁establishing	-13627
##	-13628
▁dealt	-13629
▁observe	-13630
▁varieties	-13631
!).	-13632
rimin	-13633
▁cave	-13634
▁Ghost	-13635
▁bubble	-13636
▁seniors	-13637
▁Production	-13638
▁structural	-13639
anas	-13640
race	-13641
▁bree	-13642
▁nicely	-13643
▁CF	-13644
▁Nice	-13645
▁Soph	-13646
▁Puerto	-13647
mediate	-13648
▁Scientists	-13649
▁texts	-13650
▁welcoming	-13651
▁Pred	-13652
▁Planet	-13653
▁counting	-13654
▁reserves	-13655
▁taxpayers	-13656
▁Cop	-13657
▁sends	-13658
▁freely	-13659
▁executed	-13660
▁homeowners	-13661
OUR	-13662
▁Added	-13663
▁Czech	-13664
▁buses	-13665
▁locks	-13666
▁Potter	-13667
▁patience	-13668
▁companion	-13669
ón	-13670
ixon	-13671
rapeut	-13672
▁stats	-13673
▁ES	-13674
▁Fame	-13675
▁filming	-13676
bris	-13677
▁consolid	-13678
math	-13679
icular	-13680
▁heels	-13681
▁corporation	-13682
▁Nancy	-13683
▁Venez	-13684
closed	-13685
▁freel	-13686
vol	-13687
▁Harrison	-13688
▁punishment	-13689
模式	-13690
▁talents	-13691
archy	-13692
▁sketch	-13693
▁Disease	-13694
iens	-13695
▁Category	-13696
▁earliest	-13697
▁Tab	-13698
▁wines	-13699
▁Rodrig	-13700
▁Specific	-13701
▁tablespoons	-13702
irable	-13703
▁Rogers	-13704
▁portrait	-13705
▁ho	-13706
Mark	-13707
insp	-13708
▁Thai	-13709
▁Ll	-13710
▁Arc	-13711
▁quad	-13712
▁rolls	-13713
▁restoration	-13714
▁Boys	-13715
▁silly	-13716
▁sells	-13717
▁donors	-13718
▁parade	-13719
Tw	-13720
▁Boot	-13721
ulator	-13722
▁Bears	-13723
▁opener	-13724
▁spy	-13725
▁plugin	-13726
▁celebrities	-13727
ski	-13728
▁Modi	-13729
▁envelop	-13730
▁blogging	-13731
▁Coalition	-13732
▁perceived	-13733
▁selecting	-13734
▁underneath	-13735
))	-13736
::	-13737
osa	-13738
leton	-13739
▁cush	-13740
usters	-13741
▁Chand	-13742
▁analys	-13743
▁underway	-13744
stan	-13745
uson	-13746
▁pics	-13747
▁barriers	-13748
▁Oliver	-13749
~~	-13750
▁slides	-13751
▁pressed	-13752
▁Actually	-13753
▁specifications	-13754
▁Veh	-13755
▁spam	-13756
▁UPDATE	-13757
▁Respons	-13758
▁Going	-13759
▁Medicaid	-13760
▁Gran	-13761
▁ugly	-13762
▁Coming	-13763
▁Nathan	-13764
▁Ukrain	-13765
▁inning	-13766
▁pleaded	-13767
appropriate	-13768
▁nationally	-13769
▁Cant	-13770
▁penalties	-13771
▁jam	-13772
▁Surv	-13773
▁breach	-13774
▁intimid	-13775
▁darkness	-13776
▁stakeholders	-13777
orus	-13778
▁tastes	-13779
▁achievements	-13780
anean	-13781
▁Gates	-13782
▁Bachel	-13783
▁portal	-13784
▁Baptist	-13785
▁farms	-13786
▁liver	-13787
▁males	-13788
▁Drop	-13789
▁manifest	-13790
▁constitution	-13791
▁fame	-13792
▁charm	-13793
▁advise	-13794
rine	-13795
▁zones	-13796
▁Benefits	-13797
▁shoulders	-13798
▁Display	-13799
▁craw	-13800
▁miscon	-13801
▁distant	-13802
▁teammates	-13803
▁Tool	-13804
▁memorial	-13805
▁Beauty	-13806
▁Latest	-13807
▁detected	-13808
▁MO	-13809
▁knocked	-13810
▁Ni	-13811
▁fond	-13812
▁Argentina	-13813
ipher	-13814
quire	-13815
▁supportive	-13816
heastern	-13817
▁graduates	-13818
urred	-13819
▁bears	-13820
▁density	-13821
▁seasonal	-13822
▁trademark	-13823
Che	-13824
ceive	-13825
▁contam	-13826
▁blocking	-13827
vernment	-13828
▁formerly	-13829
fil	-13830
▁LG	-13831
View	-13832
▁sher	-13833
▁hiking	-13834
help	-13835
▁teenagers	-13836
▁Photography	-13837
ikh	-13838
kel	-13839
ocial	-13840
▁Officials	-13841
somet	-13842
▁Joint	-13843
▁partially	-13844
▁earthquake	-13845
Gu	-13846
iop	-13847
▁sized	-13848
uki	-13849
▁SF	-13850
▁Sr	-13851
▁Pok	-13852
▁nod	-13853
▁Late	-13854
second	-13855
▁relie	-13856
▁trace	-13857
▁Treasury	-13858
▁Pi	-13859
▁Wol	-13860
▁vacuum	-13861
bsp	-13862
outube	-13863
▁individually	-13864
▁Glen	-13865
▁Berkeley	-13866
▁digit	-13867
▁arrange	-13868
▁qualifying	-13869
▁snack	-13870
olesale	-13871
prising	-13872
▁wallet	-13873
▁archive	-13874
▁stance	-13875
▁tailored	-13876
▁Northwest	-13877
igue	-13878
iosity	-13879
▁chill	-13880
▁Present	-13881
▁civilian	-13882
file	-13883
▁Jets	-13884
minded	-13885
▁openly	-13886
▁bicycle	-13887
▁measurement	-13888
▁conditioning	-13889
▁ber	-13890
▁hilar	-13891
▁labour	-13892
▁MM	-13893
▁SQL	-13894
ountered	-13895
aho	-13896
▁Yoga	-13897
insula	-13898
▁Subject	-13899
▁prisoners	-13900
profile	-13901
▁Luther	-13902
▁existed	-13903
▁transcript	-13904
ancers	-13905
ido	-13906
▁Campus	-13907
▁Item	-13908
▁metres	-13909
oni	-13910
roller	-13911
▁Lay	-13912
ocate	-13913
▁ampl	-13914
▁Edwards	-13915
▁cartoon	-13916
▁Tournament	-13917
anut	-13918
▁syndrome	-13919
▁Agreement	-13920
▁nan	-13921
▁dont	-13922
normal	-13923
▁Bishop	-13924
▁destro	-13925
▁resistant	-13926
big	-13927
▁Hunt	-13928
▁precision	-13929
▁Obviously	-13930
ORD	-13931
▁electro	-13932
▁Venezuel	-13933
▁encountered	-13934
▁wool	-13935
▁Sugar	-13936
▁reliability	-13937
amento	-13938
▁notified	-13939
▁polar	-13940
▁Stein	-13941
▁fridge	-13942
▁creators	-13943
▁Bros	-13944
▁surveys	-13945
Let	-13946
ihad	-13947
▁jeans	-13948
▁ports	-13949
IME	-13950
▁gel	-13951
▁CAN	-13952
▁ups	-13953
omi	-13954
▁consume	-13955
▁tobacco	-13956
▁meditation	-13957
bey	-13958
rolog	-13959
▁fles	-13960
▁urge	-13961
▁recalled	-13962
▁ministers	-13963
aph	-13964
▁mailing	-13965
KS	-13966
fits	-13967
opard	-13968
think	-13969
▁resid	-13970
▁assass	-13971
▁finishes	-13972
▁scenarios	-13973
▁graduation	-13974
agne	-13975
▁shooter	-13976
got	-13977
▁reck	-13978
▁skip	-13979
▁Titan	-13980
election	-13981
▁Provide	-13982
▁breakdown	-13983
▁organizing	-13984
▁Stream	-13985
▁substitute	-13986
▁Mack	-13987
▁Ster	-13988
▁athe	-13989
▁Chase	-13990
▁dimensions	-13991
DI	-13992
▁Mi	-13993
acer	-13994
▁satisfy	-13995
pher	-13996
▁holders	-13997
▁midfielder	-13998
▁traditionally	-13999
▁straightforward	-14000
rella	-14001
▁DM	-14002
▁..	-14003
▁bitter	-14004
▁Eight	-14005
▁Mercedes	-14006
▁Innovation	-14007
▁Investment	-14008
BN	-14009
ammar	-14010
▁volumes	-14011
▁Vide	-14012
▁immense	-14013
▁proteins	-14014
▁Kle	-14015
▁delete	-14016
▁militants	-14017
▁acknowledge	-14018
uffy	-14019
advant	-14020
▁Monte	-14021
▁stabil	-14022
▁Jar	-14023
▁Rent	-14024
▁paste	-14025
▁Dennis	-14026
▁Rivers	-14027
▁Switch	-14028
▁stun	-14029
eps	-14030
▁Rating	-14031
▁Carm	-14032
▁backyard	-14033
▁homemade	-14034
▁mobility	-14035
letter	-14036
▁Extra	-14037
▁particles	-14038
''	-14039
▁Blake	-14040
▁panic	-14041
▁Bernard	-14042
▁commands	-14043
项是多少	-14044
▁Beer	-14045
▁theore	-14046
▁predecess	-14047
▁collaborative	-14048
▁Arn	-14049
napped	-14050
▁gluten	-14051
▁Aub	-14052
▁Ric	-14053
▁forests	-14054
▁Electronic	-14055
ioxide	-14056
▁Value	-14057
▁Forces	-14058
▁loading	-14059
compass	-14060
▁Princess	-14061
▁sponsors	-14062
▁mall	-14063
▁Faith	-14064
▁hopeful	-14065
ASS	-14066
▁Ana	-14067
start	-14068
▁adapted	-14069
▁politically	-14070
▁prospective	-14071
▁migrants	-14072
▁Kid	-14073
▁tragic	-14074
▁visitor	-14075
▁RA	-14076
▁Dry	-14077
cient	-14078
▁brace	-14079
▁sticks	-14080
▁browsing	-14081
rise	-14082
▁Nep	-14083
▁anime	-14084
▁integrate	-14085
▁temporarily	-14086
eston	-14087
oples	-14088
▁genes	-14089
▁clarity	-14090
Time	-14091
hole	-14092
▁Sri	-14093
▁Dale	-14094
▁filters	-14095
abe	-14096
have	-14097
uits	-14098
click	-14099
▁Bobby	-14100
▁Stage	-14101
▁cruel	-14102
▁Hurricane	-14103
▁alph	-14104
▁Horse	-14105
CNN	-14106
▁addict	-14107
▁Alf	-14108
Point	-14109
▁Juan	-14110
▁pile	-14111
agging	-14112
▁clips	-14113
▁Princip	-14114
.;	-14115
haul	-14116
▁haul	-14117
▁Impact	-14118
▁Linda	-14119
▁cancelled	-14120
worthy	-14121
▁rebounds	-14122
▁Kam	-14123
▁differ	-14124
▁maximize	-14125
▁democratic	-14126
▁Il	-14127
▁Typ	-14128
▁musician	-14129
▁midst	-14130
▁multipl	-14131
▁messaging	-14132
occ	-14133
izers	-14134
▁puzzle	-14135
▁Regular	-14136
▁Pinterest	-14137
▁consciousness	-14138
ibe	-14139
also	-14140
▁Walter	-14141
▁Theater	-14142
项为	-14143
首项为	-14144
Trump	-14145
anked	-14146
ingle	-14147
▁Range	-14148
▁discusses	-14149
▁elementary	-14150
▁Spl	-14151
▁Shaw	-14152
▁lover	-14153
▁weekends	-14154
▁recreational	-14155
kees	-14156
urring	-14157
▁Circle	-14158
rah	-14159
▁Aer	-14160
appro	-14161
▁Cinem	-14162
▁Brooks	-14163
▁timeline	-14164
▁practicing	-14165
▁wand	-14166
▁neuro	-14167
resist	-14168
▁melt	-14169
▁Ashley	-14170
▁sooner	-14171
▁homosex	-14172
GM	-14173
数据	-14174
▁bun	-14175
▁Emma	-14176
▁inhib	-14177
onomous	-14178
▁argues	-14179
▁pine	-14180
Ps	-14181
TO	-14182
umper	-14183
▁Milan	-14184
▁formally	-14185
dict	-14186
▁holder	-14187
▁ADVERTISEMENT	-14188
▁Lag	-14189
aired	-14190
▁Defe	-14191
▁restored	-14192
▁pir	-14193
▁entities	-14194
ACE	-14195
From	-14196
▁Info	-14197
product	-14198
oriented	-14199
▁vitamin	-14200
ais	-14201
▁soy	-14202
asive	-14203
▁Raven	-14204
▁pursuit	-14205
gregation	-14206
▁magnific	-14207
▁ISO	-14208
tender	-14209
▁royal	-14210
▁Delta	-14211
▁intake	-14212
▁Masters	-14213
▁Apply	-14214
▁spotlight	-14215
▁reson	-14216
starter	-14217
▁editors	-14218
ONE	-14219
▁GDP	-14220
UTERS	-14221
▁Flight	-14222
▁Customers	-14223
▁Mob	-14224
▁thy	-14225
▁nutrients	-14226
fold	-14227
▁los	-14228
ographer	-14229
▁deployment	-14230
▁intensive	-14231
abul	-14232
▁tops	-14233
▁lifted	-14234
▁blogger	-14235
▁planes	-14236
▁determination	-14237
ierra	-14238
▁sake	-14239
▁disappeared	-14240
arel	-14241
struct	-14242
▁twelve	-14243
▁easiest	-14244
uz	-14245
▁jar	-14246
▁pole	-14247
▁Glenn	-14248
ublished	-14249
▁flooring	-14250
▁spacious	-14251
▁ingredient	-14252
unc	-14253
▁RS	-14254
▁Diet	-14255
▁charming	-14256
▁dys	-14257
▁Focus	-14258
▁Guest	-14259
▁penet	-14260
▁crafts	-14261
▁Monitor	-14262
▁villages	-14263
ulin	-14264
▁vari	-14265
▁SN	-14266
▁Shar	-14267
▁Carlos	-14268
▁infant	-14269
▁mounting	-14270
lower	-14271
▁topped	-14272
▁Statistics	-14273
▁Vladimir	-14274
▁inclusion	-14275
▁automation	-14276
iw	-14277
uv	-14278
boro	-14279
▁invasion	-14280
▁colleague	-14281
▁undergraduate	-14282
▁hence	-14283
▁detained	-14284
.),	-14285
igs	-14286
▁Mode	-14287
▁Legend	-14288
▁independently	-14289
▁Floor	-14290
▁beers	-14291
▁forming	-14292
▁trapped	-14293
▁merchandise	-14294
▁gri	-14295
usted	-14296
▁commander	-14297
▁Fans	-14298
▁besides	-14299
▁Wii	-14300
▁bacon	-14301
▁intend	-14302
▁Career	-14303
▁diplomatic	-14304
▁py	-14305
▁corrupt	-14306
XX	-14307
igma	-14308
▁resil	-14309
▁Treatment	-14310
▁reviewing	-14311
lla	-14312
▁hills	-14313
▁ethics	-14314
utt	-14315
▁Pun	-14316
cre	-14317
▁snacks	-14318
▁Calgary	-14319
▁Nevertheless	-14320
▁iPod	-14321
▁drill	-14322
▁gamers	-14323
▁fucking	-14324
▁predictions	-14325
tha	-14326
five	-14327
▁Mes	-14328
▁Lion	-14329
▁alerts	-14330
▁strongest	-14331
▁Reed	-14332
▁generic	-14333
pers	-14334
▁unders	-14335
▁waited	-14336
▁sometime	-14337
▁travelers	-14338
▁continuously	-14339
▁zomb	-14340
▁Indians	-14341
▁Assess	-14342
▁creature	-14343
▁Opp	-14344
▁unl	-14345
▁respondents	-14346
bone	-14347
▁zip	-14348
▁Volunte	-14349
▁combining	-14350
▁documented	-14351
▁connectivity	-14352
Day	-14353
▁curve	-14354
GH	-14355
▁Egg	-14356
▁firmly	-14357
▁watches	-14358
▁Jama	-14359
▁bloom	-14360
▁matched	-14361
▁renewed	-14362
issance	-14363
▁adorable	-14364
▁politician	-14365
payer	-14366
▁manages	-14367
▁adaptation	-14368
than	-14369
▁Elementary	-14370
▁newer	-14371
▁tattoo	-14372
▁suppose	-14373
▁Pentagon	-14374
▁pel	-14375
________________	-14376
mal	-14377
▁streams	-14378
▁specially	-14379
Add	-14380
▁Ye	-14381
▁carb	-14382
▁vendor	-14383
▁upgrades	-14384
▁complained	-14385
▁Initi	-14386
▁Storage	-14387
▁organised	-14388
matic	-14389
▁Officers	-14390
▁explores	-14391
▁questioning	-14392
▁TM	-14393
▁patrol	-14394
▁recruitment	-14395
Cal	-14396
▁pub	-14397
▁Colon	-14398
▁Linked	-14399
▁Prevention	-14400
▁complain	-14401
▁rotation	-14402
▁Hopefully	-14403
▁REL	-14404
▁Kenya	-14405
▁RO	-14406
▁Zone	-14407
▁preval	-14408
▁lengthy	-14409
UK	-14410
▁Gonz	-14411
▁expend	-14412
▁decides	-14413
▁striker	-14414
▁MAR	-14415
▁athlete	-14416
▁outline	-14417
▁warehouse	-14418
▁proportion	-14419
▁Route	-14420
▁cricket	-14421
▁Includes	-14422
▁Congressional	-14423
▁incorporated	-14424
irk	-14425
otto	-14426
▁spa	-14427
▁Libya	-14428
▁Tiger	-14429
pectives	-14430
▁Cyber	-14431
▁dated	-14432
▁debris	-14433
▁packing	-14434
▁Brussels	-14435
▁proceeds	-14436
▁query	-14437
▁Harvey	-14438
▁RC	-14439
orig	-14440
▁Wel	-14441
▁pairs	-14442
▁chapters	-14443
▁Stu	-14444
▁drought	-14445
▁advertisement	-14446
▁nerve	-14447
▁discipl	-14448
▁conjunction	-14449
▁Bot	-14450
▁Fried	-14451
▁Talib	-14452
▁reprodu	-14453
▁notification	-14454
▁gad	-14455
▁Organic	-14456
▁proceedings	-14457
▁appointments	-14458
▁drawings	-14459
rien	-14460
▁guards	-14461
▁slice	-14462
▁outbreak	-14463
eor	-14464
▁UP	-14465
tage	-14466
▁Brady	-14467
▁Wells	-14468
▁tomato	-14469
▁symbols	-14470
ergy	-14471
▁Hab	-14472
ieval	-14473
▁Biden	-14474
▁median	-14475
▁Previous	-14476
▁AFP	-14477
▁Nex	-14478
arett	-14479
stairs	-14480
▁Tools	-14481
▁cargo	-14482
▁endors	-14483
▁publishers	-14484
atinum	-14485
▁Kerry	-14486
▁accred	-14487
▁asylum	-14488
▁revised	-14489
▁retailer	-14490
▁sunlight	-14491
▁ARE	-14492
▁dip	-14493
▁Homes	-14494
▁tunnel	-14495
▁lightly	-14496
mentation	-14497
gans	-14498
ernandez	-14499
▁Platform	-14500
▁adjacent	-14501
mg	-14502
▁desp	-14503
ository	-14504
▁Multiple	-14505
▁Rd	-14506
amas	-14507
▁Load	-14508
▁nort	-14509
▁Explain	-14510
▁Tow	-14511
▁Chip	-14512
▁dimin	-14513
▁amateur	-14514
▁Alexand	-14515
▁aesthetic	-14516
eway	-14517
esity	-14518
▁strengths	-14519
▁closet	-14520
▁frustrating	-14521
iners	-14522
▁Chef	-14523
▁Fitz	-14524
▁Multi	-14525
▁fever	-14526
▁horiz	-14527
▁footprint	-14528
mi	-14529
公差	-14530
公差为	-14531
inis	-14532
▁Huff	-14533
▁continually	-14534
ITE	-14535
map	-14536
John	-14537
four	-14538
▁Vac	-14539
▁Detect	-14540
▁Recomm	-14541
▁等差数列首项为	-14542
▁automotive	-14543
▁enthusiasts	-14544
▁Marie	-14545
▁observations	-14546
weg	-14547
▁kg	-14548
▁chick	-14549
▁Choice	-14550
▁Maj	-14551
▁wax	-14552
▁puzz	-14553
▁Comic	-14554
▁partnerships	-14555
▁educate	-14556
▁Wiki	-14557
▁todd	-14558
▁logged	-14559
▁Queensland	-14560
▁lenses	-14561
▁conviction	-14562
és	-14563
▁Firefox	-14564
istically	-14565
▁vet	-14566
▁boil	-14567
▁inevitable	-14568
ANS	-14569
▁Ferguson	-14570
▁cinema	-14571
▁Document	-14572
▁Adventure	-14573
▁fundament	-14574
▁intersection	-14575
▁pickup	-14576
▁Sessions	-14577
▁flagship	-14578
▁Agriculture	-14579
▁Rules	-14580
▁cease	-14581
▁chase	-14582
▁plaint	-14583
▁Sustain	-14584
▁variation	-14585
▁Suite	-14586
▁Used	-14587
▁baked	-14588
▁crashed	-14589
▁doubled	-14590
▁Championships	-14591
▁kits	-14592
▁trio	-14593
▁Minor	-14594
▁ninth	-14595
▁physicians	-14596
BR	-14597
▁rivers	-14598
▁trauma	-14599
▁REUTERS	-14600
mid	-14601
▁Quebec	-14602
hl	-14603
rose	-14604
▁soda	-14605
▁Mathe	-14606
▁Stephan	-14607
▁runners	-14608
▁nu	-14609
▁mph	-14610
▁Downtown	-14611
▁Arctic	-14612
▁Hudson	-14613
▁Chile	-14614
▁masc	-14615
imedia	-14616
aternity	-14617
▁logical	-14618
▁preference	-14619
afe	-14620
▁Cany	-14621
▁echo	-14622
▁Brain	-14623
▁whisk	-14624
ressing	-14625
▁radar	-14626
▁Opport	-14627
▁Veterans	-14628
▁resolved	-14629
▁determining	-14630
▁Hear	-14631
▁sandwich	-14632
▁Cable	-14633
▁Lynch	-14634
▁Abbott	-14635
▁cousin	-14636
▁fierce	-14637
▁Christie	-14638
▁dubbed	-14639
▁sophomore	-14640
▁Edin	-14641
▁disagree	-14642
▁Affordable	-14643
▁Foster	-14644
▁Ultimate	-14645
dings	-14646
▁shirts	-14647
▁monetary	-14648
▁controlling	-14649
eek	-14650
offic	-14651
▁Counsel	-14652
▁educated	-14653
arded	-14654
▁mice	-14655
building	-14656
▁criminals	-14657
camp	-14658
▁Bluetooth	-14659
▁backgrounds	-14660
▁appeals	-14661
▁alternate	-14662
▁ambassador	-14663
▁helicopter	-14664
sur	-14665
▁Ax	-14666
▁Motors	-14667
▁felony	-14668
▁Phillips	-14669
keys	-14670
oday	-14671
▁Eagle	-14672
▁commem	-14673
▁avoiding	-14674
▁Rams	-14675
▁checkout	-14676
bank	-14677
▁gem	-14678
impse	-14679
▁frank	-14680
▁Newcastle	-14681
▁Ukrainian	-14682
eta	-14683
gon	-14684
▁AMD	-14685
▁Cards	-14686
▁tanks	-14687
▁consumed	-14688
▁Ja	-14689
▁Dawn	-14690
▁fict	-14691
▁slim	-14692
celand	-14693
▁illegally	-14694
▁Nag	-14695
cules	-14696
alph	-14697
▁Gabri	-14698
▁Links	-14699
▁jokes	-14700
▁ranges	-14701
▁interrupt	-14702
▁governance	-14703
omo	-14704
itro	-14705
▁Hack	-14706
ottest	-14707
▁sheer	-14708
▁poorly	-14709
▁bias	-14710
▁rall	-14711
▁taxi	-14712
▁Someone	-14713
raham	-14714
▁adjusted	-14715
found	-14716
▁deer	-14717
▁mandate	-14718
▁tuition	-14719
▁litigation	-14720
acht	-14721
umps	-14722
▁***	-14723
▁Haz	-14724
▁patio	-14725
▁Communication	-14726
opic	-14727
▁Moz	-14728
▁pale	-14729
▁fright	-14730
vised	-14731
▁holy	-14732
▁Champion	-14733
▁sacrifice	-14734
▁Oz	-14735
allow	-14736
lette	-14737
▁Fill	-14738
review	-14739
▁TODAY	-14740
ahn	-14741
▁bip	-14742
World	-14743
▁Polish	-14744
▁Julie	-14745
▁forgot	-14746
▁Heights	-14747
▁inherent	-14748
▁Mt	-14749
▁sheep	-14750
▁cooler	-14751
▁tricky	-14752
异步	-14753
▁Fla	-14754
▁mast	-14755
▁Sit	-14756
ippers	-14757
▁partial	-14758
▁bored	-14759
▁blamed	-14760
▁modes	-14761
▁biology	-14762
▁cuisine	-14763
▁McL	-14764
ancies	-14765
▁Materials	-14766
▁mechanisms	-14767
DB	-14768
▁spouse	-14769
▁refreshing	-14770
▁unde	-14771
thodox	-14772
▁Canon	-14773
▁lining	-14774
▁Physical	-14775
▁confusing	-14776
▁conservatives	-14777
▁prototype	-14778
▁triggered	-14779
▁cryptocurrency	-14780
▁Nike	-14781
▁posed	-14782
▁maintains	-14783
iga	-14784
▁dense	-14785
▁Kindle	-14786
▁crying	-14787
▁youngest	-14788
TT	-14789
omer	-14790
chron	-14791
▁gard	-14792
formed	-14793
▁lanes	-14794
▁banner	-14795
▁reminds	-14796
▁cocktail	-14797
▁bombs	-14798
▁Breakfast	-14799
▁kicks	-14800
▁Warriors	-14801
▁Ple	-14802
▁nic	-14803
station	-14804
▁reluct	-14805
▁planted	-14806
Last	-14807
▁advisor	-14808
▁torture	-14809
▁stranger	-14810
▁Fo	-14811
iterr	-14812
▁Either	-14813
▁Improve	-14814
▁variables	-14815
ACH	-14816
ussy	-14817
entially	-14818
.]	-14819
▁festivals	-14820
▁UI	-14821
mill	-14822
▁encompass	-14823
▁Suz	-14824
▁Drag	-14825
fortunate	-14826
ensed	-14827
▁Built	-14828
▁Iceland	-14829
urned	-14830
▁Comics	-14831
▁priest	-14832
▁conflicts	-14833
ayed	-14834
▁contrad	-14835
▁pupp	-14836
astics	-14837
braska	-14838
▁visibility	-14839
▁urgent	-14840
▁obstacles	-14841
pered	-14842
▁varying	-14843
▁outlined	-14844
▁licensing	-14845
LP	-14846
ahl	-14847
▁mud	-14848
▁Lots	-14849
[...]
